{
  "version": "1.0",
  "truncation": null,
  "padding": null,
  "added_tokens": [
    {
      "id": 0,
      "content": "<|pad|>",
      "single_word": false,
      "lstrip": false,
      "rstrip": false,
      "normalized": false,
      "special": true
    },
    {
      "id": 1,
      "content": "<|unk|>",
      "single_word": false,
      "lstrip": false,
      "rstrip": false,
      "normalized": false,
      "special": true
    },
    {
      "id": 2,
      "content": "<|bos|>",
      "single_word": false,
      "lstrip": false,
      "rstrip": false,
      "normalized": false,
      "special": true
    },
    {
      "id": 3,
      "content": "<|eos|>",
      "single_word": false,
      "lstrip": false,
      "rstrip": false,
      "normalized": false,
      "special": true
    },
    {
      "id": 4,
      "content": "<|start_header_id|>",
      "single_word": false,
      "lstrip": false,
      "rstrip": false,
      "normalized": false,
      "special": true
    },
    {
      "id": 5,
      "content": "<|end_header_id|>",
      "single_word": false,
      "lstrip": false,
      "rstrip": false,
      "normalized": false,
      "special": true
    },
    {
      "id": 6,
      "content": "<|end_turn|>",
      "single_word": false,
      "lstrip": false,
      "rstrip": false,
      "normalized": false,
      "special": true
    },
    {
      "id": 7,
      "content": "<|think|>",
      "single_word": false,
      "lstrip": false,
      "rstrip": false,
      "normalized": false,
      "special": true
    },
    {
      "id": 8,
      "content": "<|end_think|>",
      "single_word": false,
      "lstrip": false,
      "rstrip": false,
      "normalized": false,
      "special": true
    }
  ],
  "normalizer": null,
  "pre_tokenizer": {
    "type": "ByteLevel",
    "add_prefix_space": false,
    "trim_offsets": true,
    "use_regex": true
  },
  "post_processor": null,
  "decoder": {
    "type": "ByteLevel",
    "add_prefix_space": true,
    "trim_offsets": true,
    "use_regex": true
  },
  "model": {
    "type": "BPE",
    "dropout": null,
    "unk_token": "<|unk|>",
    "continuing_subword_prefix": null,
    "end_of_word_suffix": null,
    "fuse_unk": false,
    "byte_fallback": true,
    "ignore_merges": false,
    "vocab": {
      "<|pad|>": 0,
      "<|unk|>": 1,
      "<|bos|>": 2,
      "<|eos|>": 3,
      "<|start_header_id|>": 4,
      "<|end_header_id|>": 5,
      "<|end_turn|>": 6,
      "<|think|>": 7,
      "<|end_think|>": 8,
      "!": 9,
      "\"": 10,
      "#": 11,
      "$": 12,
      "%": 13,
      "&": 14,
      "'": 15,
      "(": 16,
      ")": 17,
      "*": 18,
      "+": 19,
      ",": 20,
      "-": 21,
      ".": 22,
      "/": 23,
      "0": 24,
      "1": 25,
      "2": 26,
      "3": 27,
      "4": 28,
      "5": 29,
      "6": 30,
      "7": 31,
      "8": 32,
      "9": 33,
      ":": 34,
      ";": 35,
      "<": 36,
      "=": 37,
      ">": 38,
      "?": 39,
      "@": 40,
      "A": 41,
      "B": 42,
      "C": 43,
      "D": 44,
      "E": 45,
      "F": 46,
      "G": 47,
      "H": 48,
      "I": 49,
      "J": 50,
      "K": 51,
      "L": 52,
      "M": 53,
      "N": 54,
      "O": 55,
      "P": 56,
      "Q": 57,
      "R": 58,
      "S": 59,
      "T": 60,
      "U": 61,
      "V": 62,
      "W": 63,
      "X": 64,
      "Y": 65,
      "Z": 66,
      "[": 67,
      "\\": 68,
      "]": 69,
      "^": 70,
      "_": 71,
      "`": 72,
      "a": 73,
      "b": 74,
      "c": 75,
      "d": 76,
      "e": 77,
      "f": 78,
      "g": 79,
      "h": 80,
      "i": 81,
      "j": 82,
      "k": 83,
      "l": 84,
      "m": 85,
      "n": 86,
      "o": 87,
      "p": 88,
      "q": 89,
      "r": 90,
      "s": 91,
      "t": 92,
      "u": 93,
      "v": 94,
      "w": 95,
      "x": 96,
      "y": 97,
      "z": 98,
      "{": 99,
      "|": 100,
      "}": 101,
      "~": 102,
      "¡": 103,
      "¢": 104,
      "£": 105,
      "¤": 106,
      "¥": 107,
      "¦": 108,
      "§": 109,
      "¨": 110,
      "©": 111,
      "ª": 112,
      "«": 113,
      "¬": 114,
      "®": 115,
      "¯": 116,
      "°": 117,
      "±": 118,
      "²": 119,
      "³": 120,
      "´": 121,
      "µ": 122,
      "¶": 123,
      "·": 124,
      "¸": 125,
      "¹": 126,
      "º": 127,
      "»": 128,
      "¼": 129,
      "½": 130,
      "¾": 131,
      "¿": 132,
      "À": 133,
      "Á": 134,
      "Â": 135,
      "Ã": 136,
      "Ä": 137,
      "Å": 138,
      "Æ": 139,
      "Ç": 140,
      "È": 141,
      "É": 142,
      "Ê": 143,
      "Ë": 144,
      "Ì": 145,
      "Í": 146,
      "Î": 147,
      "Ï": 148,
      "Ð": 149,
      "Ñ": 150,
      "Ò": 151,
      "Ó": 152,
      "Ô": 153,
      "Õ": 154,
      "Ö": 155,
      "×": 156,
      "Ø": 157,
      "Ù": 158,
      "Ú": 159,
      "Û": 160,
      "Ü": 161,
      "Ý": 162,
      "Þ": 163,
      "ß": 164,
      "à": 165,
      "á": 166,
      "â": 167,
      "ã": 168,
      "ä": 169,
      "å": 170,
      "æ": 171,
      "ç": 172,
      "è": 173,
      "é": 174,
      "ê": 175,
      "ë": 176,
      "ì": 177,
      "í": 178,
      "î": 179,
      "ï": 180,
      "ð": 181,
      "ñ": 182,
      "ò": 183,
      "ó": 184,
      "ô": 185,
      "õ": 186,
      "ö": 187,
      "÷": 188,
      "ø": 189,
      "ù": 190,
      "ú": 191,
      "û": 192,
      "ü": 193,
      "ý": 194,
      "þ": 195,
      "ÿ": 196,
      "Ā": 197,
      "ā": 198,
      "Ă": 199,
      "ă": 200,
      "Ą": 201,
      "ą": 202,
      "Ć": 203,
      "ć": 204,
      "Ĉ": 205,
      "ĉ": 206,
      "Ċ": 207,
      "ċ": 208,
      "Č": 209,
      "č": 210,
      "Ď": 211,
      "ď": 212,
      "Đ": 213,
      "đ": 214,
      "Ē": 215,
      "ē": 216,
      "Ĕ": 217,
      "ĕ": 218,
      "Ė": 219,
      "ė": 220,
      "Ę": 221,
      "ę": 222,
      "Ě": 223,
      "ě": 224,
      "Ĝ": 225,
      "ĝ": 226,
      "Ğ": 227,
      "ğ": 228,
      "Ġ": 229,
      "ġ": 230,
      "Ģ": 231,
      "ģ": 232,
      "Ĥ": 233,
      "ĥ": 234,
      "Ħ": 235,
      "ħ": 236,
      "Ĩ": 237,
      "ĩ": 238,
      "Ī": 239,
      "ī": 240,
      "Ĭ": 241,
      "ĭ": 242,
      "Į": 243,
      "į": 244,
      "İ": 245,
      "ı": 246,
      "Ĳ": 247,
      "ĳ": 248,
      "Ĵ": 249,
      "ĵ": 250,
      "Ķ": 251,
      "ķ": 252,
      "ĸ": 253,
      "Ĺ": 254,
      "ĺ": 255,
      "Ļ": 256,
      "ļ": 257,
      "Ľ": 258,
      "ľ": 259,
      "Ŀ": 260,
      "ŀ": 261,
      "Ł": 262,
      "ł": 263,
      "Ń": 264,
      "Ġt": 265,
      "Ġa": 266,
      "he": 267,
      "in": 268,
      "re": 269,
      "Ġthe": 270,
      "Ġo": 271,
      "er": 272,
      "on": 273,
      "Ġs": 274,
      "at": 275,
      "en": 276,
      "Ġc": 277,
      "Ġw": 278,
      "es": 279,
      "is": 280,
      "nd": 281,
      "it": 282,
      "or": 283,
      "Ġp": 284,
      "al": 285,
      "Ġb": 286,
      "ed": 287,
      "Ġof": 288,
      "Ġf": 289,
      "an": 290,
      "ing": 291,
      "Ġin": 292,
      "ou": 293,
      "ar": 294,
      "Ġm": 295,
      "Ġand": 296,
      "Ġto": 297,
      "ic": 298,
      "Ġd": 299,
      "ion": 300,
      "le": 301,
      "ro": 302,
      "as": 303,
      "Ġh": 304,
      "Ġth": 305,
      "ent": 306,
      "ct": 307,
      "Ġe": 308,
      "il": 309,
      "Ġre": 310,
      "ĠT": 311,
      "om": 312,
      "ve": 313,
      "Ġl": 314,
      "Ġn": 315,
      "st": 316,
      "âĢ": 317,
      "ly": 318,
      "Ġbe": 319,
      "Ġis": 320,
      "se": 321,
      "Ġg": 322,
      "ol": 323,
      "ĠA": 324,
      "ation": 325,
      "im": 326,
      "id": 327,
      "et": 328,
      "ut": 329,
      "ce": 330,
      "ot": 331,
      "ur": 332,
      "ĠS": 333,
      "ow": 334,
      "ra": 335,
      "ch": 336,
      "ĠI": 337,
      "Ġfor": 338,
      "ig": 339,
      "Ġthat": 340,
      "Ġu": 341,
      "Ġon": 342,
      "Ġst": 343,
      "ĠC": 344,
      "ver": 345,
      "Ġy": 346,
      "ĠThe": 347,
      "ir": 348,
      "ul": 349,
      "ay": 350,
      "Ġas": 351,
      "am": 352,
      "ith": 353,
      "el": 354,
      "ad": 355,
      "Ġpro": 356,
      "her": 357,
      "Ġare": 358,
      "Ġcon": 359,
      "Ġan": 360,
      "Ġwith": 361,
      "Ġyou": 362,
      "Ġwh": 363,
      "if": 364,
      "Ġit": 365,
      "ĠM": 366,
      "Ġor": 367,
      "Ġal": 368,
      "ter": 369,
      "od": 370,
      "ĠP": 371,
      "Ġ(": 372,
      "Ġ1": 373,
      "ment": 374,
      "ge": 375,
      "ĠB": 376,
      "th": 377,
      "op": 378,
      "ist": 379,
      "ers": 380,
      "ate": 381,
      "Ġde": 382,
      "ĠW": 383,
      "ess": 384,
      "Ġhe": 385,
      "ill": 386,
      "ies": 387,
      "Ġex": 388,
      "ĠH": 389,
      "ab": 390,
      "âĢĻ": 391,
      "Ġsu": 392,
      "Ġwe": 393,
      "ore": 394,
      "Ġcom": 395,
      "ect": 396,
      "us": 397,
      "ity": 398,
      "Ġha": 399,
      "est": 400,
      "ive": 401,
      "res": 402,
      "ac": 403,
      "ld": 404,
      "rom": 405,
      "ke": 406,
      "um": 407,
      "Ġv": 408,
      "os": 409,
      "Ġby": 410,
      "ant": 411,
      "ĠD": 412,
      "iv": 413,
      "em": 414,
      "qu": 415,
      "ain": 416,
      "Ġat": 417,
      "ĠF": 418,
      "nt": 419,
      "ĠE": 420,
      "pp": 421,
      "Ġwas": 422,
      "igh": 423,
      "Ġcan": 424,
      "ĠâĢ": 425,
      "ĠR": 426,
      "ud": 427,
      "Ġfrom": 428,
      "Ġch": 429,
      "Ġr": 430,
      "oc": 431,
      "ort": 432,
      "Ġne": 433,
      "and": 434,
      "Ġ-": 435,
      "Ġse": 436,
      "ial": 437,
      "Ġ2": 438,
      "ĠN": 439,
      "ure": 440,
      "ĠG": 441,
      "Ġnot": 442,
      "Ġle": 443,
      "un": 444,
      "ĠL": 445,
      "art": 446,
      "Ġhave": 447,
      "ical": 448,
      "ri": 449,
      "Ġsh": 450,
      "Ġen": 451,
      "og": 452,
      "Ġthis": 453,
      "Ġsp": 454,
      "Ġab": 455,
      "Ġwor": 456,
      "ight": 457,
      "rou": 458,
      "ich": 459,
      "ĠO": 460,
      "pt": 461,
      "red": 462,
      "all": 463,
      "ĠIn": 464,
      "ould": 465,
      "ther": 466,
      "gh": 467,
      "ost": 468,
      "ome": 469,
      "ions": 470,
      "our": 471,
      "du": 472,
      "Ġim": 473,
      "ated": 474,
      "00": 475,
      "per": 476,
      "Ġpl": 477,
      "Ġus": 478,
      "ine": 479,
      "out": 480,
      "Ġtheir": 481,
      "ard": 482,
      "ag": 483,
      "ide": 484,
      "ff": 485,
      "act": 486,
      "ell": 487,
      "Ġint": 488,
      "pl": 489,
      "ear": 490,
      "ĠTh": 491,
      "ast": 492,
      "ans": 493,
      "Ġyour": 494,
      "ak": 495,
      "Ġwhich": 496,
      "ĠU": 497,
      "ĠJ": 498,
      "ust": 499,
      "Ġthey": 500,
      "Ġwhe": 501,
      "Ġk": 502,
      "age": 503,
      "ous": 504,
      "iz": 505,
      "ood": 506,
      "ec": 507,
      "Ġall": 508,
      "Ġad": 509,
      "Ġwill": 510,
      "ult": 511,
      "Ġcont": 512,
      "Ġinc": 513,
      "end": 514,
      "ib": 515,
      "cc": 516,
      "Ġdis": 517,
      "Ġmore": 518,
      "âĢĿ": 519,
      "ĠâĢľ": 520,
      "ru": 521,
      "Ġcomp": 522,
      "ong": 523,
      "Ġres": 524,
      "ap": 525,
      "Ġhas": 526,
      "vel": 527,
      "ip": 528,
      "ations": 529,
      "ew": 530,
      "ia": 531,
      "ere": 532,
      "Ġdo": 533,
      "so": 534,
      "orm": 535,
      "ater": 536,
      "ary": 537,
      "ild": 538,
      "Ġman": 539,
      "are": 540,
      "ence": 541,
      "Ġother": 542,
      "able": 543,
      "Ġbut": 544,
      "Ġcl": 545,
      "Ġwere": 546,
      "ual": 547,
      "ks": 548,
      "ry": 549,
      "ind": 550,
      "Ġper": 551,
      "Ġimp": 552,
      "Ġte": 553,
      "Ġone": 554,
      "Ġalso": 555,
      "Ġme": 556,
      "ents": 557,
      "ep": 558,
      "ance": 559,
      "ach": 560,
      "reat": 561,
      "ose": 562,
      "ake": 563,
      "'s": 564,
      "ign": 565,
      "Ġj": 566,
      "ress": 567,
      "Ġso": 568,
      "au": 569,
      "ass": 570,
      "av": 571,
      "ase": 572,
      "Ġ19": 573,
      "Ġout": 574,
      "ĠIt": 575,
      "ĠSt": 576,
      "ition": 577,
      "ice": 578,
      "Ġun": 579,
      "very": 580,
      "ction": 581,
      "ime": 582,
      "one": 583,
      "Ġar": 584,
      "Ġapp": 585,
      "Ġabout": 586,
      "Ġpart": 587,
      "ber": 588,
      "Ġstud": 589,
      "Ġev": 590,
      "Ġwho": 591,
      "Ġ\"": 592,
      "ĠThis": 593,
      "ount": 594,
      "ace": 595,
      "ord": 596,
      "Ġpe": 597,
      "ory": 598,
      "ok": 599,
      "Ġhis": 600,
      "ish": 601,
      "ens": 602,
      "ire": 603,
      "ack": 604,
      "ame": 605,
      "Ġinf": 606,
      "Ġthem": 607,
      "ĠK": 608,
      "Ġcomm": 609,
      "Ġsy": 610,
      "Ġsc": 611,
      "ors": 612,
      "ike": 613,
      "ite": 614,
      "ue": 615,
      "ces": 616,
      "ub": 617,
      "ang": 618,
      "ree": 619,
      "Ġbec": 620,
      "now": 621,
      "ound": 622,
      ").": 623,
      "Ġup": 624,
      "Ġpre": 625,
      "low": 626,
      "Ġmay": 627,
      "Ġthan": 628,
      "ĠCh": 629,
      "ric": 630,
      "olog": 631,
      "Ġqu": 632,
      "ie": 633,
      "iff": 634,
      "ople": 635,
      "ays": 636,
      "Ġsome": 637,
      "ile": 638,
      "Ġyear": 639,
      "Ġrec": 640,
      "Ġwhen": 641,
      "Ġbeen": 642,
      "Ġthere": 643,
      "ates": 644,
      "nder": 645,
      "ings": 646,
      "ail": 647,
      "Ġits": 648,
      "mer": 649,
      "Ġgo": 650,
      "ough": 651,
      "ian": 652,
      "Ġinto": 653,
      "ĠY": 654,
      "rit": 655,
      "Ġtra": 656,
      "Ġag": 657,
      "Ġwork": 658,
      "Ġtime": 659,
      "ren": 660,
      "Ġover": 661,
      "ĠV": 662,
      "Ġpeople": 663,
      "Ġ20": 664,
      "Ġ3": 665,
      "Ġthese": 666,
      "Ġhow": 667,
      "Ġdiff": 668,
      "erv": 669,
      "ally": 670,
      "rough": 671,
      "Ġro": 672,
      "ause": 673,
      "ph": 674,
      "Ġhad": 675,
      "vers": 676,
      "ons": 677,
      "Ġcons": 678,
      "lud": 679,
      "te": 680,
      "Ġour": 681,
      "Ġra": 682,
      "Ġcol": 683,
      "ond": 684,
      "Ġuse": 685,
      "ove": 686,
      "Ġbet": 687,
      "Ġtr": 688,
      "ms": 689,
      "Ġmost": 690,
      "Ġact": 691,
      "ific": 692,
      "alth": 693,
      "Ġlike": 694,
      "tern": 695,
      "ll": 696,
      "we": 697,
      "Ġknow": 698,
      "Ġsa": 699,
      "ities": 700,
      "Ġunder": 701,
      "irst": 702,
      "Ġbl": 703,
      "Ġwould": 704,
      "int": 705,
      "ys": 706,
      "Ġacc": 707,
      "ious": 708,
      "Ġdes": 709,
      "ning": 710,
      "ments": 711,
      "row": 712,
      "lic": 713,
      "ook": 714,
      "čĊ": 715,
      "les": 716,
      "Ġneed": 717,
      "velop": 718,
      "Ġnew": 719,
      "lect": 720,
      "Ġtw": 721,
      "ject": 722,
      "Ġsuch": 723,
      "Ġrel": 724,
      "ffect": 725,
      "Ġif": 726,
      "stem": 727,
      "Ġchild": 728,
      "Ġhel": 729,
      "Ġrep": 730,
      "Ġany": 731,
      "ient": 732,
      "Ġinclud": 733,
      "Ġno": 734,
      "Ġwhat": 735,
      "ĠWh": 736,
      "ational": 737,
      "Ġgen": 738,
      "Ġhelp": 739,
      "cess": 740,
      "hed": 741,
      "ative": 742,
      "Ġpr": 743,
      "Ġonly": 744,
      "Ġprodu": 745,
      "ple": 746,
      "ced": 747,
      "ool": 748,
      "Ġph": 749,
      "ating": 750,
      "Ġused": 751,
      "ular": 752,
      "Ġmany": 753,
      "Ġind": 754,
      "ob": 755,
      "Ġoff": 756,
      "Ġprov": 757,
      "ĠUn": 758,
      "Ġam": 759,
      "Ġthrough": 760,
      "Ġdevelop": 761,
      "Ġfirst": 762,
      "yp": 763,
      "ov": 764,
      "Ġfe": 765,
      "fter": 766,
      "round": 767,
      "Ġac": 768,
      "ark": 769,
      "oss": 770,
      "Ġem": 771,
      "ise": 772,
      "Ġspec": 773,
      "iet": 774,
      "ath": 775,
      "Ġpo": 776,
      "Ġreg": 777,
      "ĠAs": 778,
      "uring": 779,
      "Ġexp": 780,
      "ful": 781,
      "uc": 782,
      "Ġtwo": 783,
      "),": 784,
      "ĠHe": 785,
      "Ġdiffere": 786,
      "ics": 787,
      "ts": 788,
      "oth": 789,
      "hen": 790,
      "Ġsystem": 791,
      "ink": 792,
      "erm": 793,
      "rib": 794,
      "iss": 795,
      "eth": 796,
      "old": 797,
      "ne": 798,
      "ied": 799,
      "ĠâĢĵ": 800,
      "Ġdec": 801,
      "als": 802,
      "Ġob": 803,
      "ility": 804,
      "rop": 805,
      "Ġatt": 806,
      "Ġass": 807,
      "ible": 808,
      "ten": 809,
      "ased": 810,
      "Ġadd": 811,
      "Ġsur": 812,
      "Ġshould": 813,
      "ife": 814,
      "Ġwell": 815,
      "ble": 816,
      "ange": 817,
      "ower": 818,
      "Ġ4": 819,
      "fore": 820,
      "arch": 821,
      "ures": 822,
      "Ġwater": 823,
      "Ġrem": 824,
      "ween": 825,
      "Ġfl": 826,
      "Ġsupp": 827,
      "ert": 828,
      "wn": 829,
      "Ġ201": 830,
      "Ġyears": 831,
      "Ġhealth": 832,
      "ract": 833,
      "Ġinv": 834,
      "ng": 835,
      "Ġco": 836,
      "own": 837,
      "sel": 838,
      "ram": 839,
      "Ġsub": 840,
      "ade": 841,
      "gan": 842,
      "Ġcould": 843,
      "Ġsm": 844,
      "Ġbetween": 845,
      "Ġhigh": 846,
      "Ġ5": 847,
      "Ġwhere": 848,
      "Ġpres": 849,
      "hes": 850,
      "ution": 851,
      "ever": 852,
      "its": 853,
      "cy": 854,
      "Ġmake": 855,
      "Ġget": 856,
      "aw": 857,
      "ick": 858,
      "ily": 859,
      "uch": 860,
      "Ġpers": 861,
      "Ġher": 862,
      "Ġrese": 863,
      "Ġbu": 864,
      "ants": 865,
      "chool": 866,
      "Ġimport": 867,
      "ĠIf": 868,
      "Ġtrans": 869,
      "Ġear": 870,
      "ident": 871,
      "chn": 872,
      "ural": 873,
      "Ġ200": 874,
      "ting": 875,
      "Ġpol": 876,
      "ience": 877,
      "ited": 878,
      "meric": 879,
      "ĠWe": 880,
      "form": 881,
      "xt": 882,
      "ology": 883,
      "Ġinter": 884,
      "Ġinst": 885,
      "Ġdisc": 886,
      "Ġform": 887,
      "Ġmod": 888,
      "Ġexam": 889,
      "Ġnum": 890,
      "Ġbecause": 891,
      "ines": 892,
      "Ġlear": 893,
      "land": 894,
      "ĠHow": 895,
      "Ġfound": 896,
      "Ġdifferent": 897,
      "ĠAl": 898,
      "ists": 899,
      "ness": 900,
      "Ġafter": 901,
      "ivers": 902,
      "ins": 903,
      "ually": 904,
      "Ġeffect": 905,
      "Ġworld": 906,
      "Ġcar": 907,
      "Ġexper": 908,
      "Ġeven": 909,
      "Ġlong": 910,
      "Ġsim": 911,
      "Ġjust": 912,
      "Ġvery": 913,
      "ict": 914,
      "ĠFor": 915,
      "Ġlar": 916,
      "ism": 917,
      "Ġthen": 918,
      "Ġcent": 919,
      "Ġmed": 920,
      "Ġway": 921,
      "ef": 922,
      "gy": 923,
      "Ġcount": 924,
      "Ġincre": 925,
      "ĠAn": 926,
      "oy": 927,
      "ont": 928,
      "Ġ18": 929,
      "Ġed": 930,
      "Ġhum": 931,
      "ature": 932,
      "aking": 933,
      "cept": 934,
      "ft": 935,
      "Ġdet": 936,
      "ĠAmeric": 937,
      "ata": 938,
      "Ġresp": 939,
      "other": 940,
      "Ġinform": 941,
      "urn": 942,
      "Ġsee": 943,
      "get": 944,
      "Ġtyp": 945,
      "Ġsign": 946,
      "Ġthose": 947,
      "vent": 948,
      "ically": 949,
      "ives": 950,
      "Ġke": 951,
      "Ġgener": 952,
      "Ġref": 953,
      "Ġevery": 954,
      "Ġvar": 955,
      "Ġsoc": 956,
      "Ġsaid": 957,
      "ck": 958,
      "Ġfol": 959,
      "Ġpat": 960,
      "Ġchildren": 961,
      "Ġpub": 962,
      "Ġbeing": 963,
      "Ġprog": 964,
      "Ġcall": 965,
      "Ġext": 966,
      "Ġfact": 967,
      "arm": 968,
      "iew": 969,
      "cer": 970,
      "Ġprocess": 971,
      "Ġresult": 972,
      "ĠThey": 973,
      ".âĢĿ": 974,
      "Ġeach": 975,
      "Ġca": 976,
      "led": 977,
      "Ġsec": 978,
      "ĠRe": 979,
      "ases": 980,
      "Ġlife": 981,
      "Ġloc": 982,
      "Ġgra": 983,
      "Ġimportant": 984,
      "ros": 985,
      "ues": 986,
      "ds": 987,
      "ĠThere": 988,
      "tle": 989,
      "omm": 990,
      "ps": 991,
      "Ġrequ": 992,
      "Ġpartic": 993,
      "Ġtechn": 994,
      "Ġcommun": 995,
      "ody": 996,
      "Ġmuch": 997,
      "iron": 998,
      "Ġshe": 999,
      "ĠPro": 1000,
      "Ġmon": 1001,
      "ruct": 1002,
      "ather": 1003,
      "Ġdist": 1004,
      "ages": 1005,
      "Ġfam": 1006,
      "Ġduring": 1007,
      "Ġset": 1008,
      "Ġdep": 1009,
      "Ġart": 1010,
      "ork": 1011,
      "vern": 1012,
      "Ġown": 1013,
      "Ġmy": 1014,
      "ved": 1015,
      "Ġstudents": 1016,
      "Ġent": 1017,
      "Ġcre": 1018,
      "Ġlead": 1019,
      "Ġ6": 1020,
      "Ġread": 1021,
      "imes": 1022,
      "Ġfood": 1023,
      "ward": 1024,
      "ized": 1025,
      "Ġsk": 1026,
      "cent": 1027,
      "Ġdef": 1028,
      "io": 1029,
      "ices": 1030,
      "Ġlevel": 1031,
      "Ġfollow": 1032,
      "Ġmade": 1033,
      "Ġright": 1034,
      "Ġinformation": 1035,
      "Ġdoes": 1036,
      "Ġstudy": 1037,
      "ĠBut": 1038,
      "Ġsame": 1039,
      "gg": 1040,
      "Ġaut": 1041,
      "Ġgrow": 1042,
      "Ġperson": 1043,
      "..": 1044,
      "Ġproble": 1045,
      "Ġgood": 1046,
      "Ġfind": 1047,
      "any": 1048,
      "Ġschool": 1049,
      "hip": 1050,
      "ize": 1051,
      "Ġback": 1052,
      "Ġend": 1053,
      "Ġmin": 1054,
      "Ġcur": 1055,
      "Ġav": 1056,
      "Ġboth": 1057,
      "ection": 1058,
      "ted": 1059,
      "ĠYou": 1060,
      "ĠAr": 1061,
      "Ġins": 1062,
      "Ġstr": 1063,
      "Ġdata": 1064,
      "Ġhist": 1065,
      "onom": 1066,
      "ality": 1067,
      "Ġbefore": 1068,
      "Ġpop": 1069,
      "ale": 1070,
      "Ġche": 1071,
      "Ġdi": 1072,
      "The": 1073,
      "Ġexpl": 1074,
      "Ġshow": 1075,
      "und": 1076,
      "Ġgrou": 1077,
      "Ġcomple": 1078,
      "Ġsmall": 1079,
      "read": 1080,
      "stand": 1081,
      "ially": 1082,
      "viron": 1083,
      "Ġagain": 1084,
      "Ġcor": 1085,
      "Ġmain": 1086,
      "ivid": 1087,
      "Ġtest": 1088,
      "Ġgl": 1089,
      "ĠInd": 1090,
      "Ġusing": 1091,
      "Ġoften": 1092,
      "Ġtreat": 1093,
      "ince": 1094,
      "omen": 1095,
      "Ġbo": 1096,
      "ĠSp": 1097,
      "iel": 1098,
      "ined": 1099,
      "Ġbr": 1100,
      "Ġless": 1101,
      "Ġwhile": 1102,
      "ock": 1103,
      "Ġday": 1104,
      "Ġtake": 1105,
      "Ġlit": 1106,
      "Ġprot": 1107,
      "inal": 1108,
      "Ġsol": 1109,
      "ty": 1110,
      "ars": 1111,
      "der": 1112,
      "ĠNew": 1113,
      "Ġposs": 1114,
      "iversity": 1115,
      "Ġstate": 1116,
      "ergy": 1117,
      "imate": 1118,
      "Ġserv": 1119,
      "ished": 1120,
      "Ġnow": 1121,
      "Ġhim": 1122,
      "akes": 1123,
      "Ġresearch": 1124,
      "ix": 1125,
      "Ġdise": 1126,
      "nce": 1127,
      "000": 1128,
      "Ġpower": 1129,
      "ĠAnd": 1130,
      "ien": 1131,
      "Ġec": 1132,
      "rol": 1133,
      "Ġval": 1134,
      "ĠSc": 1135,
      "Ġocc": 1136,
      "Ġris": 1137,
      "ĠWhat": 1138,
      "Ġorgan": 1139,
      "Ġma": 1140,
      "oh": 1141,
      "ute": 1142,
      "Ġbody": 1143,
      "Ġvis": 1144,
      "Ġmem": 1145,
      "Ġnumber": 1146,
      "ury": 1147,
      "Ġ10": 1148,
      "ier": 1149,
      "Ġaround": 1150,
      "Ġdesign": 1151,
      "Ġbel": 1152,
      "Ġhand": 1153,
      "dition": 1154,
      "Ġhuman": 1155,
      "iety": 1156,
      "Ġprovid": 1157,
      "ral": 1158,
      "iving": 1159,
      "vironment": 1160,
      "Ġchar": 1161,
      "ĠWhen": 1162,
      "Ġactiv": 1163,
      "ulation": 1164,
      "Ġ7": 1165,
      "ves": 1166,
      "ĠThese": 1167,
      "ex": 1168,
      "Ġdown": 1169,
      "irect": 1170,
      "Ġthree": 1171,
      "ered": 1172,
      "air": 1173,
      "Ġsupport": 1174,
      "Ġclass": 1175,
      "Ġredu": 1176,
      "iqu": 1177,
      "Ġmust": 1178,
      "up": 1179,
      "20": 1180,
      "Ġcommon": 1181,
      "Ġfun": 1182,
      "Ġlook": 1183,
      "hers": 1184,
      "ters": 1185,
      "Ġgreat": 1186,
      "Ġstart": 1187,
      "ven": 1188,
      "19": 1189,
      "Ġcle": 1190,
      ".,": 1191,
      "Ġconf": 1192,
      "Ġcell": 1193,
      "Ġgovern": 1194,
      "ital": 1195,
      "ger": 1196,
      "day": 1197,
      "Ġdid": 1198,
      "Ġest": 1199,
      "uss": 1200,
      "Ġpoint": 1201,
      "ah": 1202,
      "Ġwrit": 1203,
      "Ġplan": 1204,
      "ving": 1205,
      ",âĢĿ": 1206,
      "Ġcare": 1207,
      "ĠIs": 1208,
      "Ġelect": 1209,
      "ave": 1210,
      "Ġland": 1211,
      "self": 1212,
      "Ġlarge": 1213,
      "Ġ8": 1214,
      "ains": 1215,
      "the": 1216,
      "Ġreport": 1217,
      "ouse": 1218,
      "rent": 1219,
      "âĢĶ": 1220,
      "ium": 1221,
      "Ġcontin": 1222,
      "Ġser": 1223,
      "Ġexample": 1224,
      "ross": 1225,
      "ĠâĢĺ": 1226,
      "rain": 1227,
      "Ġop": 1228,
      "acter": 1229,
      "Ġthough": 1230,
      "orn": 1231,
      "Ġdr": 1232,
      "ional": 1233,
      "ared": 1234,
      "ĠTo": 1235,
      "Ġincluding": 1236,
      "Ġadv": 1237,
      "Ġeduc": 1238,
      "Ġallow": 1239,
      "cl": 1240,
      "ull": 1241,
      "Ġunderstand": 1242,
      "itions": 1243,
      "way": 1244,
      "Ġconst": 1245,
      "Ġbuild": 1246,
      "anc": 1247,
      "Ġcour": 1248,
      "gen": 1249,
      "Ġstill": 1250,
      "Ġcalled": 1251,
      "ash": 1252,
      "Ġequ": 1253,
      "Ġsom": 1254,
      "Ġ|": 1255,
      "Ġknown": 1256,
      "ee": 1257,
      "iver": 1258,
      "Ġret": 1259,
      "Ġpract": 1260,
      "outh": 1261,
      "Ġpublic": 1262,
      "Ġbeh": 1263,
      "ron": 1264,
      "ividual": 1265,
      "Ġmet": 1266,
      "esp": 1267,
      "iven": 1268,
      "ner": 1269,
      "Ġthink": 1270,
      "Ġ9": 1271,
      "ĠAt": 1272,
      "Ġeas": 1273,
      "Ġplace": 1274,
      "Ġide": 1275,
      "Ġquest": 1276,
      "Ġgu": 1277,
      "aterial": 1278,
      "ired": 1279,
      "oms": 1280,
      "Ġmight": 1281,
      "com": 1282,
      "els": 1283,
      "ential": 1284,
      "iod": 1285,
      "ĠHowever": 1286,
      "osed": 1287,
      "ries": 1288,
      "Ġfew": 1289,
      "erest": 1290,
      "me": 1291,
      "Ġgre": 1292,
      "ids": 1293,
      "Ġappro": 1294,
      "ected": 1295,
      ".\"": 1296,
      "ĠDe": 1297,
      "inc": 1298,
      "oci": 1299,
      "ax": 1300,
      "ering": 1301,
      "Ġcaus": 1302,
      "itive": 1303,
      "ank": 1304,
      "Ġmat": 1305,
      "Ġstand": 1306,
      "Ġpur": 1307,
      "Ġchang": 1308,
      "ization": 1309,
      "de": 1310,
      "Ġpresent": 1311,
      "Ġenergy": 1312,
      "lish": 1313,
      "Ġproduct": 1314,
      "Ġtem": 1315,
      "Ġindividual": 1316,
      "Ġwant": 1317,
      "Ġenvironment": 1318,
      "Ġdem": 1319,
      "ording": 1320,
      "ination": 1321,
      "Ġwithout": 1322,
      "Ġwithin": 1323,
      "Ġiss": 1324,
      "bers": 1325,
      "ources": 1326,
      "ĠAd": 1327,
      "Ġchange": 1328,
      "ived": 1329,
      "Ġplay": 1330,
      "ason": 1331,
      "ense": 1332,
      "ration": 1333,
      "oun": 1334,
      "ertain": 1335,
      "ĠEng": 1336,
      "Ġdevelopment": 1337,
      "raph": 1338,
      "Ġsym": 1339,
      "eng": 1340,
      "Ġphys": 1341,
      "Ġimpro": 1342,
      "Ġprof": 1343,
      "Ġlearn": 1344,
      "Ġair": 1345,
      "Ġdon": 1346,
      "Ġlight": 1347,
      "Ġimm": 1348,
      "ffic": 1349,
      "Ġmaterial": 1350,
      "Ġben": 1351,
      "ption": 1352,
      "Ġproject": 1353,
      "Ġcap": 1354,
      "ĠCon": 1355,
      "||": 1356,
      "arent": 1357,
      "Ġsl": 1358,
      "Ġeng": 1359,
      "iness": 1360,
      "ĠAmerican": 1361,
      "Ġpot": 1362,
      "ior": 1363,
      "Ġsocial": 1364,
      "Ġident": 1365,
      "alk": 1366,
      "angu": 1367,
      "less": 1368,
      "Ġbre": 1369,
      "line": 1370,
      "Ġwomen": 1371,
      "Ġsit": 1372,
      "Ġdisease": 1373,
      "Ġpass": 1374,
      "ets": 1375,
      "Ġve": 1376,
      "eral": 1377,
      "Ġanother": 1378,
      "Ġpos": 1379,
      "Ġdirect": 1380,
      "Ġbelie": 1381,
      "agn": 1382,
      "Ġmeth": 1383,
      "Ġarea": 1384,
      "ians": 1385,
      "man": 1386,
      "ĠSh": 1387,
      "Ġbest": 1388,
      "ĠUniversity": 1389,
      "Ġhome": 1390,
      "illion": 1391,
      "gin": 1392,
      "jor": 1393,
      "Ġ199": 1394,
      "ental": 1395,
      "orth": 1396,
      "bs": 1397,
      "Ġcult": 1398,
      "Ġinterest": 1399,
      "ĠPh": 1400,
      "sp": 1401,
      "ton": 1402,
      "Ġanal": 1403,
      "Ġinclude": 1404,
      "Ġmeas": 1405,
      "ĠEx": 1406,
      "Ġess": 1407,
      "ability": 1408,
      "Ġmus": 1409,
      "Ġpain": 1410,
      "Ġblood": 1411,
      "Ġmark": 1412,
      "ield": 1413,
      "ained": 1414,
      "Ġbecome": 1415,
      "Ġopp": 1416,
      "Ġbas": 1417,
      "ris": 1418,
      "Ġant": 1419,
      "Ġrisk": 1420,
      "erc": 1421,
      "ified": 1422,
      "Ġnat": 1423,
      "Ġrest": 1424,
      "ĠRes": 1425,
      "ently": 1426,
      "ological": 1427,
      "Ġwar": 1428,
      "Ġeconom": 1429,
      "'t": 1430,
      "Ġdesc": 1431,
      "Ġold": 1432,
      "ccess": 1433,
      "Ġbetter": 1434,
      "Ġearly": 1435,
      "Ġsever": 1436,
      "Ġgovernment": 1437,
      "ats": 1438,
      "Ġcontrol": 1439,
      "Ġlaw": 1440,
      "ify": 1441,
      "rodu": 1442,
      "ĠOn": 1443,
      "ug": 1444,
      "âĢĵ": 1445,
      "ining": 1446,
      "Ġagainst": 1447,
      "Ġmil": 1448,
      "Ġlow": 1449,
      "Ġanim": 1450,
      "Ġmove": 1451,
      "ways": 1452,
      "ĠSo": 1453,
      "Ġleg": 1454,
      "atic": 1455,
      "Ġkeep": 1456,
      "Ġproper": 1457,
      "Ġhere": 1458,
      "hor": 1459,
      "Ġhistory": 1460,
      "Ġprogram": 1461,
      "Ġlast": 1462,
      "ills": 1463,
      "lished": 1464,
      "Ġ&": 1465,
      "rist": 1466,
      "Ġtoo": 1467,
      "Ġreal": 1468,
      "ern": 1469,
      "arc": 1470,
      "ĠBe": 1471,
      "ĠCl": 1472,
      "az": 1473,
      "ision": 1474,
      "Ġtre": 1475,
      "Ġcause": 1476,
      "ĠâĢĶ": 1477,
      "Ġfore": 1478,
      "ider": 1479,
      "Ġsecond": 1480,
      "Ġmeans": 1481,
      "Ġpar": 1482,
      "Ġorder": 1483,
      "ource": 1484,
      "ĠSe": 1485,
      "Ġmajor": 1486,
      "Ġfamily": 1487,
      "10": 1488,
      "Ġprovide": 1489,
      "here": 1490,
      "Ġmethod": 1491,
      "Ġtop": 1492,
      "ention": 1493,
      "Ġoper": 1494,
      "ware": 1495,
      "ients": 1496,
      "ories": 1497,
      "Ġter": 1498,
      "Ġinfl": 1499,
      "ĠQ": 1500,
      "Ġgroup": 1501,
      "Ġoccur": 1502,
      "ik": 1503,
      "rap": 1504,
      "Ġparticular": 1505,
      "ission": 1506,
      "Ġavail": 1507,
      "Ġunt": 1508,
      "ards": 1509,
      "Ġsay": 1510,
      "Ġindu": 1511,
      "ĠPl": 1512,
      "Ġperform": 1513,
      "amp": 1514,
      "ĠUnited": 1515,
      "Ġele": 1516,
      "Ġet": 1517,
      "Ġpossible": 1518,
      "str": 1519,
      "Ġperiod": 1520,
      "Ġ.": 1521,
      "Ġseveral": 1522,
      "Ġdev": 1523,
      "Ġlearning": 1524,
      "Ġnear": 1525,
      "Ġsaf": 1526,
      "icle": 1527,
      "ples": 1528,
      "Ġfin": 1529,
      "eg": 1530,
      "ĠGod": 1531,
      "ĠCan": 1532,
      "Ġinvol": 1533,
      "Ġ15": 1534,
      "Ġable": 1535,
      "Ġmean": 1536,
      "Ġhapp": 1537,
      "Ġ[": 1538,
      "Ġhig": 1539,
      "Ġbenef": 1540,
      "use": 1541,
      "ĠCol": 1542,
      "Ġaddition": 1543,
      "Ġcurrent": 1544,
      "Ġbus": 1545,
      "Ġpercent": 1546,
      "Ġmen": 1547,
      "view": 1548,
      "Ġlangu": 1549,
      "ret": 1550,
      "eed": 1551,
      "Ġorig": 1552,
      "Ġthings": 1553,
      "Ġprom": 1554,
      "Ġfeel": 1555,
      "Ġsignific": 1556,
      "Ġsince": 1557,
      "Ġaffect": 1558,
      "ĠCom": 1559,
      "Ġcost": 1560,
      "oid": 1561,
      "Ġplant": 1562,
      "irc": 1563,
      "ograph": 1564,
      "par": 1565,
      "Ġopen": 1566,
      "Ġel": 1567,
      "Ġscient": 1568,
      "ogn": 1569,
      "Ġamong": 1570,
      "Ġothers": 1571,
      "ĠComm": 1572,
      "Ġlim": 1573,
      "ote": 1574,
      "idence": 1575,
      "Ġmar": 1576,
      "ina": 1577,
      "Ġsays": 1578,
      "Ġcountry": 1579,
      "Ġspecies": 1580,
      "Ġnon": 1581,
      "Ġareas": 1582,
      "urop": 1583,
      "Ġcal": 1584,
      "though": 1585,
      "ĠAll": 1586,
      "ĠOne": 1587,
      "ilar": 1588,
      "to": 1589,
      "Ġtreatment": 1590,
      "ended": 1591,
      "osp": 1592,
      "ends": 1593,
      "sy": 1594,
      "aper": 1595,
      "ĠZ": 1596,
      "Ġtimes": 1597,
      "Ġfour": 1598,
      "Ġprevent": 1599,
      "Ġhead": 1600,
      "ator": 1601,
      "Ġfre": 1602,
      "ead": 1603,
      "Ġbased": 1604,
      "ots": 1605,
      "Ġcome": 1606,
      "ĠStates": 1607,
      "Ġfac": 1608,
      "elf": 1609,
      "ane": 1610,
      "ling": 1611,
      "ably": 1612,
      "ocus": 1613,
      "Ġavailable": 1614,
      "ames": 1615,
      "Ġprop": 1616,
      "Ġcond": 1617,
      "Ġwee": 1618,
      "Ġdel": 1619,
      "Ġcertain": 1620,
      "ĠSome": 1621,
      "Ġage": 1622,
      "Ġmonth": 1623,
      "Ġcase": 1624,
      ",\"": 1625,
      "urther": 1626,
      "ances": 1627,
      "cing": 1628,
      "Ġ17": 1629,
      "Ġproblem": 1630,
      "ploy": 1631,
      "Ġname": 1632,
      "Ġfree": 1633,
      "Ġaccess": 1634,
      "Ġfollowing": 1635,
      "ĠWith": 1636,
      "ĠEn": 1637,
      "Ġlab": 1638,
      "Ġlo": 1639,
      "Ġrece": 1640,
      "ised": 1641,
      "Ġput": 1642,
      "ones": 1643,
      "ĠTe": 1644,
      "Ġnatural": 1645,
      "Ġlittle": 1646,
      "une": 1647,
      "Ġ12": 1648,
      "Ġsuccess": 1649,
      "Ġpost": 1650,
      "Ġconn": 1651,
      "Ġcreat": 1652,
      "Ġproblems": 1653,
      "urope": 1654,
      "Ġview": 1655,
      "Ġstruct": 1656,
      "Ġbro": 1657,
      "ĠOr": 1658,
      "Ġrun": 1659,
      "Ġhard": 1660,
      "Ġpress": 1661,
      "Ġintern": 1662,
      "icult": 1663,
      "Ġlocal": 1664,
      "ole": 1665,
      "Ġlet": 1666,
      "Ġgr": 1667,
      "sc": 1668,
      "Ġlist": 1669,
      "Ġlevels": 1670,
      "oint": 1671,
      "Ġamount": 1672,
      "Ġbir": 1673,
      "Ġfar": 1674,
      "Ġimpact": 1675,
      "ope": 1676,
      "ggest": 1677,
      "ression": 1678,
      "Ġobject": 1679,
      "olution": 1680,
      "Ġbi": 1681,
      "Ġyoung": 1682,
      "ĠChrist": 1683,
      "Ġbook": 1684,
      "ĠNational": 1685,
      "Ġsignificant": 1686,
      "ring": 1687,
      "Ġuntil": 1688,
      "Ġtype": 1689,
      "ething": 1690,
      "Ġmaking": 1691,
      "ĠAf": 1692,
      "ĠCent": 1693,
      "Ġvol": 1694,
      "ortun": 1695,
      "Ġlater": 1696,
      "Ġassoci": 1697,
      "tt": 1698,
      "Ġturn": 1699,
      "Ġdue": 1700,
      "Ġflow": 1701,
      "ately": 1702,
      "Ġfocus": 1703,
      "be": 1704,
      "Ġshort": 1705,
      "ged": 1706,
      "Ġsw": 1707,
      "Ġsuggest": 1708,
      "ĠEurope": 1709,
      "resent": 1710,
      "por": 1711,
      "ither": 1712,
      "work": 1713,
      "Ġcho": 1714,
      "Ġpolit": 1715,
      "Ġeducation": 1716,
      "Ġseem": 1717,
      "ledge": 1718,
      "uture": 1719,
      "Ġgiven": 1720,
      "Ġmult": 1721,
      "br": 1722,
      "ĠFr": 1723,
      "ww": 1724,
      "ured": 1725,
      "Ġcomput": 1726,
      "Ġvir": 1727,
      "oks": 1728,
      "aken": 1729,
      "Ġinvest": 1730,
      "Ġdays": 1731,
      "Ġbehav": 1732,
      "Ġcells": 1733,
      "Ġlikely": 1734,
      "ides": 1735,
      "atory": 1736,
      "Ġdeterm": 1737,
      "ication": 1738,
      "ĠBl": 1739,
      "Ġheart": 1740,
      "Ġdeath": 1741,
      "Ġcommunity": 1742,
      "Ġalong": 1743,
      "aps": 1744,
      "stit": 1745,
      "over": 1746,
      "Ġsomething": 1747,
      "ĠBy": 1748,
      "ried": 1749,
      "ĠUS": 1750,
      "not": 1751,
      "Ġsystems": 1752,
      "Ġcirc": 1753,
      "Ġalways": 1754,
      "Ġteac": 1755,
      "Ġcourse": 1756,
      "Ġincrease": 1757,
      "Ġcomb": 1758,
      "Ġrad": 1759,
      "Ġtechnology": 1760,
      "Ġappear": 1761,
      "Ġobs": 1762,
      "cle": 1763,
      "pect": 1764,
      "Ġhy": 1765,
      "ending": 1766,
      "Ġdifficult": 1767,
      "Ġusually": 1768,
      "orts": 1769,
      "Ġ16": 1770,
      "agement": 1771,
      "ĠWor": 1772,
      "Ġlanguage": 1773,
      "vious": 1774,
      "ecially": 1775,
      "Ġconsum": 1776,
      "Ġdra": 1777,
      "Ġauthor": 1778,
      "Ġclear": 1779,
      "ohn": 1780,
      "Ġtoday": 1781,
      "Ġpast": 1782,
      "Ġgive": 1783,
      "Ġresults": 1784,
      "Ġexperience": 1785,
      "aster": 1786,
      "ĠThat": 1787,
      "Ġfil": 1788,
      "Ġparent": 1789,
      "Ġ'": 1790,
      "Ġsing": 1791,
      "Ġsimilar": 1792,
      "Ġrele": 1793,
      "Ġcentury": 1794,
      "Ġwords": 1795,
      "Ġneeds": 1796,
      "Ġeffective": 1797,
      "face": 1798,
      "Ġfunction": 1799,
      "Ġ$": 1800,
      "Ġenc": 1801,
      "Ġwhy": 1802,
      "Ġtemper": 1803,
      "Ġcr": 1804,
      "ember": 1805,
      "Ġey": 1806,
      "Ġcrit": 1807,
      "Ġspecific": 1808,
      "ned": 1809,
      "Ġexist": 1810,
      "Ġprofess": 1811,
      "ape": 1812,
      "asing": 1813,
      "oph": 1814,
      "Ġbrain": 1815,
      "Ġill": 1816,
      "ptoms": 1817,
      "Ġcreate": 1818,
      "Ġconditions": 1819,
      "pr": 1820,
      "ators": 1821,
      "Ġcharacter": 1822,
      "Ġmillion": 1823,
      "Ġdiscuss": 1824,
      "especially": 1825,
      "ĠMed": 1826,
      "Ġpopulation": 1827,
      "Ġ0": 1828,
      "hem": 1829,
      "ours": 1830,
      "Ġspace": 1831,
      "ĠEar": 1832,
      "Ġdam": 1833,
      "Ġfuture": 1834,
      "Ġrecord": 1835,
      "Ġcancer": 1836,
      "Ġspecial": 1837,
      "Ġhowever": 1838,
      "Ġbegin": 1839,
      "Ġnecess": 1840,
      "Ġhigher": 1841,
      "Ġnext": 1842,
      "idd": 1843,
      "Ġacross": 1844,
      "Ġvarious": 1845,
      "Ġdescrib": 1846,
      "Ġbusiness": 1847,
      "Ġtry": 1848,
      "ĠBrit": 1849,
      "Ġtoget": 1850,
      "Ġtogether": 1851,
      "Ġstrong": 1852,
      "ĠWhile": 1853,
      "Ġcountries": 1854,
      "ĠAfric": 1855,
      "Ġask": 1856,
      "Ġmov": 1857,
      "Ġleast": 1858,
      "aining": 1859,
      "ored": 1860,
      "Ġside": 1861,
      "of": 1862,
      "Ġabove": 1863,
      "ruction": 1864,
      "Ġnever": 1865,
      "Ġline": 1866,
      "obal": 1867,
      "selves": 1868,
      "most": 1869,
      "oney": 1870,
      "min": 1871,
      "isc": 1872,
      "etic": 1873,
      "Ġchanges": 1874,
      "af": 1875,
      "ler": 1876,
      "Ġworks": 1877,
      "mit": 1878,
      "ribut": 1879,
      "Ġrequire": 1880,
      "Ġkind": 1881,
      "Ġestab": 1882,
      "Ġworking": 1883,
      "Ġrespons": 1884,
      "Ġimprove": 1885,
      "rug": 1886,
      "Ġaway": 1887,
      "atch": 1888,
      "ilities": 1889,
      "Ġer": 1890,
      "18": 1891,
      "Ġcomplete": 1892,
      "iation": 1893,
      "Ġways": 1894,
      "50": 1895,
      "Ġleft": 1896,
      "Ġplants": 1897,
      "reen": 1898,
      "Ġenough": 1899,
      "ique": 1900,
      "Ġapplic": 1901,
      "Ġresearc": 1902,
      "Ġcolle": 1903,
      "aves": 1904,
      "Ġmot": 1905,
      "Ġespecially": 1906,
      "ĠDr": 1907,
      "ysis": 1908,
      "ĠJohn": 1909,
      "Ġteam": 1910,
      "Ġtru": 1911,
      "Ġeffects": 1912,
      "ĠSy": 1913,
      "ateg": 1914,
      "omes": 1915,
      "ray": 1916,
      "ĠAfter": 1917,
      "Ġplac": 1918,
      "Ġterm": 1919,
      "ilt": 1920,
      "thing": 1921,
      "12": 1922,
      "Ġpatients": 1923,
      "Ġhaving": 1924,
      "ox": 1925,
      "Ġtool": 1926,
      "Ġgeneral": 1927,
      "ĠAb": 1928,
      "acy": 1929,
      "Ġgoing": 1930,
      "sw": 1931,
      "Ġcy": 1932,
      "Ġinflu": 1933,
      "Ġfull": 1934,
      "Ġconsider": 1935,
      "Ġrelations": 1936,
      "Ġsubject": 1937,
      "ĠWar": 1938,
      "Ġprim": 1939,
      "ires": 1940,
      "ĠIm": 1941,
      "oot": 1942,
      "Ġsens": 1943,
      "hing": 1944,
      "Ġbecame": 1945,
      "Ġchem": 1946,
      "oman": 1947,
      "ĠGen": 1948,
      "aching": 1949,
      "Ġcases": 1950,
      "ĠLe": 1951,
      "alf": 1952,
      "aring": 1953,
      "ales": 1954,
      "Ġstudies": 1955,
      "__": 1956,
      "Ġnet": 1957,
      "ĠGerm": 1958,
      "amm": 1959,
      "side": 1960,
      "Ġmind": 1961,
      "ĠGo": 1962,
      "Ġwhether": 1963,
      "Ġhouse": 1964,
      "chie": 1965,
      "duct": 1966,
      "iting": 1967,
      "aim": 1968,
      "Ġtypes": 1969,
      "Ġkey": 1970,
      "Ġconcer": 1971,
      "Ġknowledge": 1972,
      "Ġaccount": 1973,
      "let": 1974,
      "Ġrole": 1975,
      "ley": 1976,
      "Ġsymptoms": 1977,
      "put": 1978,
      "ges": 1979,
      "port": 1980,
      "Ġprotect": 1981,
      "Ġself": 1982,
      "ued": 1983,
      "Ġreason": 1984,
      "ipp": 1985,
      "Ġlower": 1986,
      "Ġnorm": 1987,
      "acc": 1988,
      "Ġphysical": 1989,
      "Ġpolic": 1990,
      "Ġstep": 1991,
      "Ġmakes": 1992,
      "Ġpaper": 1993,
      "ument": 1994,
      "Ġsum": 1995,
      "Ġcity": 1996,
      "ready": 1997,
      "Ġfurther": 1998,
      "Ġbig": 1999,
      "Ġlive": 2000,
      "istic": 2001,
      "lement": 2002,
      "Ġrepresent": 2003,
      "Ġwr": 2004,
      "Ġground": 2005,
      "ode": 2006,
      "ĠShe": 2007,
      "Ġquestion": 2008,
      "ĠAm": 2009,
      "Ġproduction": 2010,
      "ĠWorld": 2011,
      "Ġpred": 2012,
      "Ġopt": 2013,
      "ency": 2014,
      "Ġscience": 2015,
      "apt": 2016,
      "nal": 2017,
      "Ġens": 2018,
      "Ġchall": 2019,
      "Ġsure": 2020,
      "Ġ198": 2021,
      "Ġtoward": 2022,
      "Ġfund": 2023,
      "Ġstory": 2024,
      "ĠHealth": 2025,
      "app": 2026,
      "ann": 2027,
      "ery": 2028,
      "ĠEnglish": 2029,
      "Ġseen": 2030,
      "ott": 2031,
      "ĠCar": 2032,
      "Ġz": 2033,
      "urch": 2034,
      "Ġlot": 2035,
      "Ġ30": 2036,
      "Ġeff": 2037,
      "Ġreally": 2038,
      "Ġemploy": 2039,
      "by": 2040,
      "itor": 2041,
      "atures": 2042,
      "aut": 2043,
      "Ġdig": 2044,
      "ites": 2045,
      "Ġalready": 2046,
      "Ġgrowth": 2047,
      "ibility": 2048,
      "verage": 2049,
      "ird": 2050,
      "Ġnut": 2051,
      "Ġgroups": 2052,
      "ification": 2053,
      "Ġfall": 2054,
      "Ġoffic": 2055,
      "Ġparticip": 2056,
      "Ġactivities": 2057,
      "sych": 2058,
      "augh": 2059,
      "edi": 2060,
      "Ġ14": 2061,
      "Ġdone": 2062,
      "ung": 2063,
      "ĠStud": 2064,
      "ream": 2065,
      "ĠMar": 2066,
      "for": 2067,
      "Ġquality": 2068,
      "iol": 2069,
      "ĠDo": 2070,
      "ĠTr": 2071,
      "Ġrather": 2072,
      "Ġclose": 2073,
      "Ġrange": 2074,
      "Ġmic": 2075,
      "oura": 2076,
      "ables": 2077,
      "Ġloss": 2078,
      "Ġindic": 2079,
      "Ġactivity": 2080,
      "Ġoil": 2081,
      "Ġproducts": 2082,
      "Ġmodel": 2083,
      "uation": 2084,
      "etimes": 2085,
      "Ġpotential": 2086,
      "bon": 2087,
      "Ġresources": 2088,
      "Ġdeveloped": 2089,
      "Ġachie": 2090,
      "11": 2091,
      "Ġrecogn": 2092,
      "Ġstat": 2093,
      "Ġbat": 2094,
      "Ġaccording": 2095,
      "ĠIntern": 2096,
      "Ġwind": 2097,
      "fact": 2098,
      "...": 2099,
      "overed": 2100,
      "Ġneg": 2101,
      "Ġtradition": 2102,
      "mber": 2103,
      "Ġeither": 2104,
      "iam": 2105,
      "Ġnational": 2106,
      "unt": 2107,
      "rel": 2108,
      "Ġbelow": 2109,
      "Ġindust": 2110,
      "Ġskills": 2111,
      "Ġword": 2112,
      "Ġprob": 2113,
      "Ġdiet": 2114,
      "ands": 2115,
      "Ġevent": 2116,
      "ules": 2117,
      "NA": 2118,
      "wh": 2119,
      "Ġdeg": 2120,
      "Ġbuilding": 2121,
      "Ġreduce": 2122,
      "Ġ13": 2123,
      "Ġmass": 2124,
      "ĠGe": 2125,
      "ĠResear": 2126,
      "Ġfield": 2127,
      "iple": 2128,
      "ae": 2129,
      "Ġvalue": 2130,
      "idered": 2131,
      "Ġonce": 2132,
      "Ġmedical": 2133,
      "leep": 2134,
      "Ġtext": 2135,
      "Ġfive": 2136,
      "ĠCal": 2137,
      "Ġissues": 2138,
      "ivil": 2139,
      "lo": 2140,
      "Ġclimate": 2141,
      "Ġarticle": 2142,
      "ĠAcc": 2143,
      "erence": 2144,
      "Ġabs": 2145,
      "Ġtaken": 2146,
      "ĠMay": 2147,
      "ival": 2148,
      "ison": 2149,
      "Ġphot": 2150,
      "ĠPr": 2151,
      "ĠSouth": 2152,
      "Ġsingle": 2153,
      "Ġfr": 2154,
      "Ġur": 2155,
      "Ġsite": 2156,
      "esc": 2157,
      "Ġsoil": 2158,
      "osis": 2159,
      "Ġrelig": 2160,
      "Ġwhole": 2161,
      "Ġintrodu": 2162,
      "Ġrate": 2163,
      "ĠNorth": 2164,
      "Ġupon": 2165,
      "Ġmembers": 2166,
      "Ġconcept": 2167,
      "Ġmeet": 2168,
      "Ġcollect": 2169,
      "Ġinit": 2170,
      "rict": 2171,
      "Ġ11": 2172,
      "Ġsource": 2173,
      "Ġobserv": 2174,
      "Ġflu": 2175,
      "Ġresearchers": 2176,
      "Ġcame": 2177,
      "Ġann": 2178,
      "Ġdrug": 2179,
      "Ġquestions": 2180,
      "Ġcut": 2181,
      "Ġwhite": 2182,
      "Ġsun": 2183,
      "rams": 2184,
      "urity": 2185,
      "Ġconsidered": 2186,
      "Ġrecomm": 2187,
      "Ġdoct": 2188,
      "Ġevidence": 2189,
      "Ġfail": 2190,
      "Ġthemselves": 2191,
      "ask": 2192,
      "Ġsurface": 2193,
      "Ġmarket": 2194,
      "ĠAmerica": 2195,
      "Ġfri": 2196,
      "Ġdom": 2197,
      "Ġred": 2198,
      "//": 2199,
      "Ġtot": 2200,
      "amin": 2201,
      "Ġtell": 2202,
      "Ġsent": 2203,
      "Ġaddress": 2204,
      "Ġpolitical": 2205,
      "Ġstates": 2206,
      "Ġnature": 2207,
      "ips": 2208,
      "Ġfrequ": 2209,
      "reme": 2210,
      "Ġpay": 2211,
      "Ġliving": 2212,
      "fficient": 2213,
      "Ġskin": 2214,
      "Ġpressure": 2215,
      "Ġcreated": 2216,
      "illed": 2217,
      "Ġhold": 2218,
      "Ġdetail": 2219,
      "rect": 2220,
      "Ġwide": 2221,
      "ety": 2222,
      "Ġanimals": 2223,
      "ublic": 2224,
      "Ġcannot": 2225,
      "ĠMany": 2226,
      "Ġactually": 2227,
      "Ġdest": 2228,
      "Ġhistor": 2229,
      "val": 2230,
      "ĠRep": 2231,
      "Ġincreased": 2232,
      "ivity": 2233,
      "Ġsal": 2234,
      "fer": 2235,
      "Ġrepl": 2236,
      "ĠAss": 2237,
      "Ġsound": 2238,
      "Ġsize": 2239,
      "Ġopportun": 2240,
      "Ġassociated": 2241,
      "roll": 2242,
      "://": 2243,
      "ights": 2244,
      "ensive": 2245,
      "eter": 2246,
      "Ġthought": 2247,
      "epend": 2248,
      "Ġpractice": 2249,
      "Ġunderstanding": 2250,
      "Ġstress": 2251,
      "Ġweek": 2252,
      "ule": 2253,
      "ĠHis": 2254,
      "Ġhealthy": 2255,
      "ĠNe": 2256,
      "30": 2257,
      "Ġrelationship": 2258,
      "ĠMan": 2259,
      "Ġblack": 2260,
      "sequ": 2261,
      "Ġrequired": 2262,
      "Ġwriting": 2263,
      "Ġentire": 2264,
      "Ġeconomic": 2265,
      "Ġquick": 2266,
      "Ġengine": 2267,
      "Ġver": 2268,
      "Ġpurp": 2269,
      "Ġsimple": 2270,
      "Ġneeded": 2271,
      "Ġreturn": 2272,
      "Ġstudent": 2273,
      "Ġadult": 2274,
      "ĠCont": 2275,
      "Ġidea": 2276,
      "reg": 2277,
      "ober": 2278,
      "eds": 2279,
      "Ġability": 2280,
      "Ġcomes": 2281,
      "ening": 2282,
      "Ġpublished": 2283,
      "Ġmodern": 2284,
      "Ġfamil": 2285,
      "Ġspe": 2286,
      "Ġmaint": 2287,
      "like": 2288,
      "enn": 2289,
      "ĠAct": 2290,
      "Ġlay": 2291,
      "Ġrelated": 2292,
      "ĠAust": 2293,
      "ĠNo": 2294,
      "Ġ197": 2295,
      "ym": 2296,
      "Ġalmost": 2297,
      "ĠPe": 2298,
      "Ġmoney": 2299,
      "Ġmaterials": 2300,
      "Ġglobal": 2301,
      "utions": 2302,
      "ĠDep": 2303,
      "Ġexperien": 2304,
      "Ġarg": 2305,
      "ĠSoc": 2306,
      "Ġcondition": 2307,
      "Ġitself": 2308,
      "ĠÂ": 2309,
      "Ġport": 2310,
      "ER": 2311,
      "Ġservices": 2312,
      "Ġcomplex": 2313,
      "acks": 2314,
      "âĢ¦": 2315,
      "Ġfish": 2316,
      "ications": 2317,
      "itud": 2318,
      "Ġparts": 2319,
      "Ġanalysis": 2320,
      "ened": 2321,
      "Ġavoid": 2322,
      "Ġfat": 2323,
      "200": 2324,
      "Ġfactors": 2325,
      "oon": 2326,
      "aged": 2327,
      "Ġmor": 2328,
      "itary": 2329,
      "artment": 2330,
      "ĠHist": 2331,
      "Ġansw": 2332,
      "ibr": 2333,
      "ump": 2334,
      "ging": 2335,
      "Ġdog": 2336,
      "sh": 2337,
      "aging": 2338,
      "ush": 2339,
      "Ġmonths": 2340,
      "15": 2341,
      "Ġrights": 2342,
      "oses": 2343,
      "Ġexerc": 2344,
      "Ġliter": 2345,
      "Ġcat": 2346,
      "Ġla": 2347,
      "Ġsuff": 2348,
      "Ġtook": 2349,
      "Ġbegan": 2350,
      "ournal": 2351,
      "Ġnecessary": 2352,
      "Ġprovides": 2353,
      "Ġparents": 2354,
      "Ġmanagement": 2355,
      "ney": 2356,
      "Ġdoc": 2357,
      "ĠYork": 2358,
      "gest": 2359,
      "uel": 2360,
      "yn": 2361,
      "ai": 2362,
      "ĠFl": 2363,
      "Ġweight": 2364,
      "ĠEm": 2365,
      "Ġhalf": 2366,
      "lying": 2367,
      "hib": 2368,
      "erve": 2369,
      "org": 2370,
      "bo": 2371,
      "ĠState": 2372,
      "Ġpriv": 2373,
      "Ġever": 2374,
      "Ġvers": 2375,
      "vere": 2376,
      "ulations": 2377,
      "ĠGu": 2378,
      "ĠMost": 2379,
      "Ġsuper": 2380,
      "Ġassess": 2381,
      "Ġapproach": 2382,
      "Ġproduce": 2383,
      "Ġpersonal": 2384,
      "Ġcoll": 2385,
      "Ġgas": 2386,
      "ply": 2387,
      "Ġreact": 2388,
      "ences": 2389,
      "yl": 2390,
      "Ġarr": 2391,
      "ĠMore": 2392,
      "Ġarch": 2393,
      "urs": 2394,
      "ĠEarth": 2395,
      "Ġbar": 2396,
      "Ġprote": 2397,
      "Ġjob": 2398,
      "Ġmeasure": 2399,
      "go": 2400,
      "rad": 2401,
      "ores": 2402,
      "ĠCo": 2403,
      "Ġsam": 2404,
      "Ġfarm": 2405,
      "Ġconduct": 2406,
      "Ġemer": 2407,
      "chan": 2408,
      "AS": 2409,
      "16": 2410,
      "Ġthroughout": 2411,
      "ĠAlthough": 2412,
      "Ġgreen": 2413,
      "izing": 2414,
      "Ġyet": 2415,
      "Ġpopular": 2416,
      "olic": 2417,
      "eb": 2418,
      "Ġclaim": 2419,
      ".)": 2420,
      "Ġstop": 2421,
      "Ġsociety": 2422,
      "Ġlink": 2423,
      "Ġcomputer": 2424,
      "Ġ100": 2425,
      "usion": 2426,
      "rown": 2427,
      "Ġpath": 2428,
      "Ġsoft": 2429,
      "Ġindividuals": 2430,
      "ma": 2431,
      "Ġtaking": 2432,
      "Ġprinc": 2433,
      "Ġtar": 2434,
      "ĠJew": 2435,
      "irm": 2436,
      "Ġreading": 2437,
      "Ġanc": 2438,
      "based": 2439,
      "Ġfire": 2440,
      "Ġfeed": 2441,
      "Ġregard": 2442,
      "empt": 2443,
      "ĠBritish": 2444,
      "Ġwin": 2445,
      "Ġsense": 2446,
      "Ġpattern": 2447,
      "17": 2448,
      "my": 2449,
      "iddle": 2450,
      "ese": 2451,
      "emic": 2452,
      "Ġincreasing": 2453,
      "het": 2454,
      "Ġ196": 2455,
      "Ġregion": 2456,
      "utes": 2457,
      "abor": 2458,
      "Ġcolor": 2459,
      "Ġchemical": 2460,
      "onse": 2461,
      "ze": 2462,
      "Ġaction": 2463,
      "Ġcompany": 2464,
      "ĠHere": 2465,
      "nces": 2466,
      "Ġclean": 2467,
      "erous": 2468,
      "Ġbur": 2469,
      "Ġsepar": 2470,
      "Ġservice": 2471,
      "Ġlonger": 2472,
      "ections": 2473,
      "Ġbuilt": 2474,
      "Ġge": 2475,
      "Ġtalk": 2476,
      "ĠX": 2477,
      "Ġrecent": 2478,
      "Ġshows": 2479,
      "Ġtherap": 2480,
      "Ġ=": 2481,
      "ĠSu": 2482,
      "Ġsleep": 2483,
      "apan": 2484,
      "Ġonline": 2485,
      "hold": 2486,
      "Ġindustry": 2487,
      "Ġ50": 2488,
      "Ġsix": 2489,
      "abit": 2490,
      "oll": 2491,
      "ising": 2492,
      "14": 2493,
      "uck": 2494,
      "Ġtraining": 2495,
      "Ġdeb": 2496,
      "ches": 2497,
      "pid": 2498,
      "Ġhtt": 2499,
      "Ġcop": 2500,
      "Ġprevious": 2501,
      "Ġschools": 2502,
      "estern": 2503,
      "Ġtotal": 2504,
      "ume": 2505,
      "Ġut": 2506,
      "Ġterms": 2507,
      "Ġcontent": 2508,
      "Ġhours": 2509,
      "ĠCanad": 2510,
      "Ġinj": 2511,
      "Ġheav": 2512,
      "Ġtravel": 2513,
      "Ġmatter": 2514,
      "ĠAccording": 2515,
      "ĠResearch": 2516,
      "igure": 2517,
      "yle": 2518,
      "ively": 2519,
      "iction": 2520,
      "Ġcalc": 2521,
      "Ġrev": 2522,
      "son": 2523,
      "reng": 2524,
      "Ġsurv": 2525,
      "Ġcaused": 2526,
      "Ġthing": 2527,
      "Ġbenefits": 2528,
      "icles": 2529,
      "anced": 2530,
      "Ġtemperature": 2531,
      "Ġlives": 2532,
      "Th": 2533,
      "Ġcauses": 2534,
      "Ġstructure": 2535,
      "Ġmeaning": 2536,
      "Ġbehavior": 2537,
      "Ġbreak": 2538,
      "Ġce": 2539,
      "fully": 2540,
      "Ġposition": 2541,
      "astic": 2542,
      "Ġconc": 2543,
      "Ġheat": 2544,
      "Ġdiagn": 2545,
      "iment": 2546,
      "Ġinteract": 2547,
      "Ġsat": 2548,
      "Ġsex": 2549,
      "Ġenvironmental": 2550,
      "Ġ25": 2551,
      "ript": 2552,
      "itation": 2553,
      "Ġdisord": 2554,
      "Ġcontact": 2555,
      "pro": 2556,
      "mb": 2557,
      "ĠSec": 2558,
      "aily": 2559,
      "ĠSchool": 2560,
      "lt": 2561,
      "ĠYour": 2562,
      "Ġtrue": 2563,
      "ĠOther": 2564,
      "Ġbring": 2565,
      "asc": 2566,
      "minist": 2567,
      "Ġeasy": 2568,
      "Ġmach": 2569,
      "\".": 2570,
      "Ġspread": 2571,
      "hood": 2572,
      "Ġ194": 2573,
      "Ġdesigned": 2574,
      "13": 2575,
      "Ġprovided": 2576,
      "ederal": 2577,
      "Ġsafe": 2578,
      "Ġviol": 2579,
      "ĠPar": 2580,
      "ĠPer": 2581,
      "Ġpositive": 2582,
      "Ġlove": 2583,
      "ĠMe": 2584,
      "aff": 2585,
      "Ġaccept": 2586,
      "vey": 2587,
      "Ġwild": 2588,
      "Ġcontain": 2589,
      "rought": 2590,
      "Ġste": 2591,
      "Ġcheck": 2592,
      "ched": 2593,
      "ricult": 2594,
      "Ġregular": 2595,
      "ĠPres": 2596,
      "ĠJapan": 2597,
      "Ġearth": 2598,
      "Ġbelieve": 2599,
      "Ġaverage": 2600,
      "ĠWill": 2601,
      "ropri": 2602,
      "mon": 2603,
      "Ġprec": 2604,
      "Ġfru": 2605,
      "istance": 2606,
      "Ġshown": 2607,
      "Ġled": 2608,
      "Ġlif": 2609,
      "Ġmusic": 2610,
      "aving": 2611,
      "ĠIndia": 2612,
      "ĠInstit": 2613,
      "lex": 2614,
      "ĠPre": 2615,
      "ufact": 2616,
      "Ġincludes": 2617,
      "Ġeat": 2618,
      "Ġdeep": 2619,
      "Ġissue": 2620,
      "Ġfem": 2621,
      "ister": 2622,
      "Ġvariety": 2623,
      "imin": 2624,
      "imately": 2625,
      "Ġsimply": 2626,
      "ene": 2627,
      "ĠII": 2628,
      "Ġetc": 2629,
      "ĠKing": 2630,
      "Ġculture": 2631,
      "ster": 2632,
      "gar": 2633,
      "Ġslow": 2634,
      "Ġgreater": 2635,
      "ows": 2636,
      "ronic": 2637,
      "Ġmovement": 2638,
      "Ġhelps": 2639,
      "Ġsometimes": 2640,
      "Ġvide": 2641,
      "ners": 2642,
      "ades": 2643,
      "Ġwritten": 2644,
      "rast": 2645,
      "rior": 2646,
      "Ġprograms": 2647,
      "Ġrelative": 2648,
      "istics": 2649,
      "Ġexc": 2650,
      "Ġface": 2651,
      "Ġscientists": 2652,
      "ES": 2653,
      "Ġsubst": 2654,
      "Ġcompan": 2655,
      "Ġdoing": 2656,
      "lands": 2657,
      "Ġpoll": 2658,
      "Ġorigin": 2659,
      "Ġthreat": 2660,
      "ĠFrom": 2661,
      "Ġcompl": 2662,
      "Ġmethods": 2663,
      "Ġpsych": 2664,
      "Ġcarbon": 2665,
      "Ġbacter": 2666,
      "ĠQu": 2667,
      "Ġreported": 2668,
      "Ġencoura": 2669,
      "Ġtarget": 2670,
      "Ġstreng": 2671,
      "Ġdamage": 2672,
      "Ġoriginal": 2673,
      "ns": 2674,
      "Ġstandard": 2675,
      "dom": 2676,
      "aries": 2677,
      "ĠCO": 2678,
      "amed": 2679,
      "ID": 2680,
      "ĠOf": 2681,
      "Ġevents": 2682,
      "Ġinvolved": 2683,
      "Ġresponse": 2684,
      "Ġreview": 2685,
      "ĠComp": 2686,
      "Ġcamp": 2687,
      "ĠApp": 2688,
      "arily": 2689,
      "Ġoutside": 2690,
      "Ġremov": 2691,
      "Ġrespect": 2692,
      "Ġmechan": 2693,
      "Ġfoods": 2694,
      "Ġcompet": 2695,
      "Ġpoor": 2696,
      "aling": 2697,
      "ĠInt": 2698,
      "ĠNot": 2699,
      "Ġvari": 2700,
      "rench": 2701,
      "eration": 2702,
      "know": 2703,
      "abet": 2704,
      "Ġuses": 2705,
      "ĠMin": 2706,
      "AT": 2707,
      "Ġsources": 2708,
      "Ġidentify": 2709,
      "verse": 2710,
      "ulate": 2711,
      "new": 2712,
      "Ġemot": 2713,
      "Ã©": 2714,
      "Ġtax": 2715,
      "Ġcust": 2716,
      "ials": 2717,
      "Ġparticularly": 2718,
      "Ġlack": 2719,
      "uge": 2720,
      "Ġdemon": 2721,
      "Ġnormal": 2722,
      "Ġattention": 2723,
      "ban": 2724,
      "osition": 2725,
      "oor": 2726,
      "Ġensure": 2727,
      "Ġtend": 2728,
      "aches": 2729,
      "Ġessential": 2730,
      "elling": 2731,
      "Ġserious": 2732,
      "Ġlate": 2733,
      "Ġelectric": 2734,
      "AR": 2735,
      "Ġpict": 2736,
      "ĠEd": 2737,
      "Ġdeveloping": 2738,
      "Ġ--": 2739,
      "Ġple": 2740,
      "ĠCons": 2741,
      "icine": 2742,
      "Ġforms": 2743,
      "rand": 2744,
      "Ġbal": 2745,
      "Ġrefer": 2746,
      "Ġattempt": 2747,
      "ief": 2748,
      "Ġgrowing": 2749,
      "atives": 2750,
      "ĠPart": 2751,
      "light": 2752,
      "Ġgenerally": 2753,
      "Ġproduced": 2754,
      "Ġfeet": 2755,
      "Ġextreme": 2756,
      "ĠAustral": 2757,
      "ises": 2758,
      "Ġaff": 2759,
      "ĠUs": 2760,
      "Ġi": 2761,
      "Ġchalleng": 2762,
      "ĠâĢ¢": 2763,
      "Ġharm": 2764,
      "ength": 2765,
      "Ġforce": 2766,
      "ached": 2767,
      "Ġshare": 2768,
      "Ġcompon": 2769,
      "Ġbasic": 2770,
      "duc": 2771,
      "ĠHar": 2772,
      "Ġimage": 2773,
      "Ġteachers": 2774,
      "Ġsust": 2775,
      "Ġinteg": 2776,
      "Ġemb": 2777,
      "Ġcoun": 2778,
      "room": 2779,
      "Ġwebs": 2780,
      "ops": 2781,
      "ĠRec": 2782,
      "oles": 2783,
      "ĠChina": 2784,
      "Ġmicro": 2785,
      "):": 2786,
      "hel": 2787,
      "umb": 2788,
      "Ġdoesn": 2789,
      "Ġvisit": 2790,
      "Ġattack": 2791,
      "issions": 2792,
      "idge": 2793,
      "Ġprobably": 2794,
      "Ġideas": 2795,
      "ulated": 2796,
      "cil": 2797,
      "bor": 2798,
      "ĠBec": 2799,
      "Ġlat": 2800,
      "Ġwood": 2801,
      "rated": 2802,
      "ĠCount": 2803,
      "Ġvirus": 2804,
      "ĠNow": 2805,
      "Ġanimal": 2806,
      "Ġforest": 2807,
      "ĠScience": 2808,
      "Ġmanufact": 2809,
      "Ġcontinue": 2810,
      "Ġappl": 2811,
      "Ġconsist": 2812,
      "irit": 2813,
      "ĠAg": 2814,
      "Ġincluded": 2815,
      "Ġgetting": 2816,
      "ĠDuring": 2817,
      "Ġap": 2818,
      "Ġaware": 2819,
      "In": 2820,
      "Ġimplement": 2821,
      "osing": 2822,
      "ĠFirst": 2823,
      "Ġnight": 2824,
      "Ġsafety": 2825,
      "Ġindepend": 2826,
      "Ġkids": 2827,
      "Ġ24": 2828,
      "isions": 2829,
      "ervation": 2830,
      "Ġdraw": 2831,
      "Ġlog": 2832,
      "Ġpatient": 2833,
      "ĠJan": 2834,
      "osure": 2835,
      "Ġsqu": 2836,
      "ucle": 2837,
      "Ġtakes": 2838,
      "Ġmedia": 2839,
      "Ġir": 2840,
      "Ġnetwork": 2841,
      "Ġsomeone": 2842,
      "ĠOur": 2843,
      "uth": 2844,
      "Ġtherefore": 2845,
      "Ġcorrect": 2846,
      "Ġpolicy": 2847,
      "ems": 2848,
      "ctions": 2849,
      "Ġvacc": 2850,
      "Ġdefin": 2851,
      "Ġcolon": 2852,
      "Ġmother": 2853,
      "ĠGl": 2854,
      "Ġprep": 2855,
      "inary": 2856,
      "Ġnumbers": 2857,
      "fect": 2858,
      "Ġseries": 2859,
      "Ġessay": 2860,
      "Ġeasily": 2861,
      "Ġdou": 2862,
      "Ġfa": 2863,
      "Ġox": 2864,
      "raft": 2865,
      "ming": 2866,
      "ads": 2867,
      "ĠKe": 2868,
      "Ġlooking": 2869,
      "Ġpage": 2870,
      "Ġfinanc": 2871,
      "Ġmess": 2872,
      "Ġcommit": 2873,
      "Ġtown": 2874,
      "ided": 2875,
      "ĠJu": 2876,
      "Ġdispl": 2877,
      "haps": 2878,
      "Ġinternational": 2879,
      "Ġdaily": 2880,
      "Ġbab": 2881,
      "Ġquite": 2882,
      "ĠAug": 2883,
      "Ġtheory": 2884,
      "Ġleaders": 2885,
      "Ġmental": 2886,
      "Ġago": 2887,
      "Ġcivil": 2888,
      "Ġstarted": 2889,
      "Ġthus": 2890,
      "ĠEl": 2891,
      "Ġearl": 2892,
      "cies": 2893,
      "Ġveget": 2894,
      "ĠChild": 2895,
      "ĠBo": 2896,
      "Ġexpress": 2897,
      "Ġmagn": 2898,
      "Ġwall": 2899,
      "ĠSm": 2900,
      "Ġhyd": 2901,
      "Ġcit": 2902,
      "Ġdang": 2903,
      "Ġtraditional": 2904,
      "Ġspeed": 2905,
      "Ġ,": 2906,
      "ground": 2907,
      "Ġsea": 2908,
      "asons": 2909,
      "set": 2910,
      "vention": 2911,
      "Ġcover": 2912,
      "ana": 2913,
      "Ġsold": 2914,
      "imum": 2915,
      "hy": 2916,
      "ĠJes": 2917,
      "Ġinstead": 2918,
      "Ġtur": 2919,
      "Ġful": 2920,
      "ĠMy": 2921,
      "Ġperformance": 2922,
      "Ġdifference": 2923,
      "rs": 2924,
      "Ġeth": 2925,
      "Ġnation": 2926,
      "Ġinstit": 2927,
      "ography": 2928,
      "Ġcommunities": 2929,
      "Ġconcent": 2930,
      "Ġinvestig": 2931,
      "rew": 2932,
      "ĠTw": 2933,
      "Ġwarm": 2934,
      "Ġthous": 2935,
      "Ġcross": 2936,
      "--": 2937,
      "Ġadded": 2938,
      "Ġprimary": 2939,
      "ha": 2940,
      "Ġfav": 2941,
      "Ġprogress": 2942,
      "ĠEven": 2943,
      "Ġsil": 2944,
      "Ġoffer": 2945,
      "Ġachieve": 2946,
      "oly": 2947,
      "rie": 2948,
      "ying": 2949,
      "Ġdiv": 2950,
      "uary": 2951,
      "Ġmilitary": 2952,
      "Ġheld": 2953,
      "Ġdiseases": 2954,
      "Ġcapt": 2955,
      "Ġbooks": 2956,
      "ington": 2957,
      "Ġsou": 2958,
      "ĠEuropean": 2959,
      "ĠArt": 2960,
      "Ġselect": 2961,
      "ius": 2962,
      "Ġquickly": 2963,
      "Ġestim": 2964,
      "anks": 2965,
      "Ġcompanies": 2966,
      "Ġallows": 2967,
      "Ġestablished": 2968,
      "ĠAc": 2969,
      "ĠCenter": 2970,
      "Ġtree": 2971,
      "Ġappropri": 2972,
      "ribution": 2973,
      "erson": 2974,
      "ĠEduc": 2975,
      "na": 2976,
      "Ġdetermine": 2977,
      "Ġinside": 2978,
      "ension": 2979,
      "Ġpoints": 2980,
      "We": 2981,
      "ĠIndian": 2982,
      "ender": 2983,
      "Ġ40": 2984,
      "ties": 2985,
      "Ġscientific": 2986,
      "ancy": 2987,
      "ĠSince": 2988,
      "overy": 2989,
      "where": 2990,
      "Ġreflect": 2991,
      "Ġprint": 2992,
      "Ġlarger": 2993,
      "Ġthird": 2994,
      "Ġtools": 2995,
      "Ġhumans": 2996,
      "iency": 2997,
      "ĠCalif": 2998,
      "erg": 2999,
      "Ġcompared": 3000,
      "Ġimmedi": 3001,
      "Ġunique": 3002,
      "Ġvit": 3003,
      "Ġreve": 3004,
      "ino": 3005,
      "ims": 3006,
      "Ġspeak": 3007,
      "Ġrout": 3008,
      "Ġunc": 3009,
      "itude": 3010,
      "iot": 3011,
      "IS": 3012,
      "ĠFrench": 3013,
      "Ġcritical": 3014,
      "Ġeye": 3015,
      "ls": 3016,
      "Ġeval": 3017,
      "Ġdecre": 3018,
      "ille": 3019,
      "Ġtrees": 3020,
      "Ġdirectly": 3021,
      "ĠTra": 3022,
      "ceed": 3023,
      "Ġtiss": 3024,
      "Ġanswer": 3025,
      "Ġgard": 3026,
      "Ġbirth": 3027,
      "Ġaltern": 3028,
      "ror": 3029,
      "inks": 3030,
      "Ġsoon": 3031,
      "Ġfront": 3032,
      "Ġdry": 3033,
      "Ġhighly": 3034,
      "rate": 3035,
      "undred": 3036,
      "ellow": 3037,
      "25": 3038,
      "Ġalthough": 3039,
      "Ġmultiple": 3040,
      "Ġbehind": 3041,
      "cell": 3042,
      "Ġdrink": 3043,
      "aces": 3044,
      "Ġhor": 3045,
      "elt": 3046,
      "joy": 3047,
      "icated": 3048,
      "ounds": 3049,
      "ĠHer": 3050,
      "Ġsevere": 3051,
      "ĠReg": 3052,
      "pril": 3053,
      "IN": 3054,
      "Ġwent": 3055,
      "ĠMarch": 3056,
      "Ġsecurity": 3057,
      "Ġfamilies": 3058,
      "Ġsolar": 3059,
      "Ġbit": 3060,
      "Ġadditional": 3061,
      "ĠWest": 3062,
      "ornia": 3063,
      "iers": 3064,
      "ift": 3065,
      "Ġwrite": 3066,
      "Ġnegative": 3067,
      "ĠDepartment": 3068,
      "ĠChar": 3069,
      "Ġbad": 3070,
      "Ġdemonstr": 3071,
      "Ġaspect": 3072,
      "useum": 3073,
      "Ġlabor": 3074,
      "Ġstay": 3075,
      "term": 3076,
      "Ġhar": 3077,
      "Ġextra": 3078,
      "Ġexercise": 3079,
      "nov": 3080,
      "Ġtowards": 3081,
      "Ġdoctor": 3082,
      "Ġwalk": 3083,
      "Ġfoot": 3084,
      "Ġactive": 3085,
      "ĠOct": 3086,
      "Ġaud": 3087,
      "ĠRuss": 3088,
      "ĠInstitute": 3089,
      "Ġseems": 3090,
      "Ġpurpose": 3091,
      "Ġbeginning": 3092,
      "Ġleading": 3093,
      "Ġtri": 3094,
      "Ġinfection": 3095,
      "arr": 3096,
      "Ġcentral": 3097,
      "Ġprior": 3098,
      "Ġhot": 3099,
      "Ġbroad": 3100,
      "abetes": 3101,
      "gency": 3102,
      "Ġanaly": 3103,
      "Ġsupply": 3104,
      "Ġshall": 3105,
      "Ġcustom": 3106,
      "uries": 3107,
      "pe": 3108,
      "Ġexpect": 3109,
      "ĠAfrica": 3110,
      "Ġteaching": 3111,
      "ĠCalifornia": 3112,
      "ĠGerman": 3113,
      "Ġsituation": 3114,
      "Ġproced": 3115,
      "Ġdocument": 3116,
      "den": 3117,
      "yond": 3118,
      "vant": 3119,
      "Ġwhose": 3120,
      "oes": 3121,
      "att": 3122,
      "Ġclin": 3123,
      "ĠAfrican": 3124,
      "iques": 3125,
      "Ġacid": 3126,
      "cean": 3127,
      "thern": 3128,
      "ĠJesus": 3129,
      "Ġhost": 3130,
      "ĠBr": 3131,
      "Ġobt": 3132,
      "Ġhands": 3133,
      "Ġaccur": 3134,
      "ĠBecause": 3135,
      "ĠMus": 3136,
      "ils": 3137,
      "ĠAnt": 3138,
      "ĠJune": 3139,
      "Ġuseful": 3140,
      "Ġstra": 3141,
      "aly": 3142,
      "Ġlimited": 3143,
      "Ġdecl": 3144,
      "Ġmount": 3145,
      "Ġthinking": 3146,
      "Ġquant": 3147,
      "Ġfight": 3148,
      "Ġancient": 3149,
      "Ġones": 3150,
      "Ġlost": 3151,
      "ĠSept": 3152,
      "Ġcontribut": 3153,
      "ilos": 3154,
      "Ġcapital": 3155,
      "ĠRead": 3156,
      "ĠLear": 3157,
      "ĠHistory": 3158,
      "It": 3159,
      "Ġfram": 3160,
      "Ġtransport": 3161,
      "oming": 3162,
      "ĠCor": 3163,
      "ĠWhy": 3164,
      "iber": 3165,
      "ĠAugust": 3166,
      "22": 3167,
      "Ġinfluence": 3168,
      "Ġimpl": 3169,
      "hern": 3170,
      "Ġmom": 3171,
      "Ġhabit": 3172,
      "olec": 3173,
      "Ġfeatures": 3174,
      "ĠGree": 3175,
      "Ġworkers": 3176,
      "Ġcard": 3177,
      "Ġstri": 3178,
      "Ġbrought": 3179,
      "Ġdark": 3180,
      "Ġvideo": 3181,
      "www": 3182,
      "Ġminutes": 3183,
      "Ġnews": 3184,
      "ĠThen": 3185,
      "Ġhundred": 3186,
      "Ġfinancial": 3187,
      "Ġexact": 3188,
      "Ġenjoy": 3189,
      "fort": 3190,
      "Ġreceived": 3191,
      "mar": 3192,
      "ĠSw": 3193,
      "Ġrequires": 3194,
      "Ġfast": 3195,
      "omet": 3196,
      "Ġelse": 3197,
      "Ġjo": 3198,
      "coh": 3199,
      "Ġsoftware": 3200,
      "Ġbase": 3201,
      "Ġstrateg": 3202,
      "Ġsection": 3203,
      "isms": 3204,
      "oring": 3205,
      "Ġrates": 3206,
      "Ġgot": 3207,
      "ĠInc": 3208,
      "rition": 3209,
      "Ġprivate": 3210,
      "ĠApril": 3211,
      "Ġjud": 3212,
      "Ġnorth": 3213,
      "ĠInternational": 3214,
      "ĠDav": 3215,
      "rote": 3216,
      "Ġ2010": 3217,
      "ĠMon": 3218,
      "Ġdemand": 3219,
      "ĠBar": 3220,
      "itch": 3221,
      "inct": 3222,
      "hest": 3223,
      "cial": 3224,
      "Ġprotein": 3225,
      "Ġstru": 3226,
      "Ġcred": 3227,
      "fl": 3228,
      "Ġwaste": 3229,
      "ĠRiver": 3230,
      "AN": 3231,
      "Ġ/": 3232,
      "Ġmill": 3233,
      "Ġinterp": 3234,
      "Ġcosts": 3235,
      "Ġelements": 3236,
      "Ġcarry": 3237,
      "gn": 3238,
      "ĠAlso": 3239,
      "Ġnearly": 3240,
      "âĢĿ.": 3241,
      "Ġsn": 3242,
      "Ġdecision": 3243,
      "Ġlargest": 3244,
      "Ġimportance": 3245,
      "Ġpack": 3246,
      "Ġprotection": 3247,
      "Ġveh": 3248,
      "ĠWash": 3249,
      "Ġsearch": 3250,
      "Ġadults": 3251,
      "Ġvalues": 3252,
      "ĠJuly": 3253,
      "itis": 3254,
      "Ġagricult": 3255,
      "Ġweeks": 3256,
      "Ġord": 3257,
      "Ġ2012": 3258,
      "Ġang": 3259,
      "Ġ21": 3260,
      "Ġsustain": 3261,
      "Ġcontains": 3262,
      "Ġadminist": 3263,
      "izations": 3264,
      "hens": 3265,
      "Ġblock": 3266,
      "Ġwa": 3267,
      "uman": 3268,
      "yr": 3269,
      "ologies": 3270,
      "Ġgoal": 3271,
      "Ġdisp": 3272,
      "Ġagree": 3273,
      "Ġplaces": 3274,
      "Ġdescribed": 3275,
      "iter": 3276,
      "ipment": 3277,
      "ĠPresident": 3278,
      "wise": 3279,
      "Ġexcept": 3280,
      "Ġleaves": 3281,
      "OR": 3282,
      "idents": 3283,
      "Ġborn": 3284,
      "ĠAmericans": 3285,
      "cks": 3286,
      "Ġbecomes": 3287,
      "ĠWilliam": 3288,
      "Ġadop": 3289,
      "orthern": 3290,
      "lection": 3291,
      "Ġseason": 3292,
      "Ġult": 3293,
      "Ġtold": 3294,
      "pper": 3295,
      "Ġgame": 3296,
      "Ġlength": 3297,
      "Ġreligious": 3298,
      "ĠSch": 3299,
      "ĠChristian": 3300,
      "formation": 3301,
      "ĠSim": 3302,
      "rogen": 3303,
      "Ġlocated": 3304,
      "Ġreach": 3305,
      "Ġfit": 3306,
      "ext": 3307,
      "Ġmention": 3308,
      "Ġsymb": 3309,
      "Ġdevices": 3310,
      "Ġlines": 3311,
      "ields": 3312,
      "Ġcapac": 3313,
      "Ġbeaut": 3314,
      "Ġlaws": 3315,
      "ĠServ": 3316,
      "'re": 3317,
      "Ġfather": 3318,
      "Ġsolution": 3319,
      "Ġapplication": 3320,
      "Ġimages": 3321,
      "ĠFin": 3322,
      "Ġprojects": 3323,
      "Ġestablish": 3324,
      "Ġsouth": 3325,
      "Ġwebsite": 3326,
      "Ġrespond": 3327,
      "used": 3328,
      "Ġdeal": 3329,
      "Ġhimself": 3330,
      "Ġefforts": 3331,
      "Ġremain": 3332,
      "Ġtests": 3333,
      "Ġcommunication": 3334,
      "rael": 3335,
      "Ġnucle": 3336,
      "Ġfriends": 3337,
      "Ġsummer": 3338,
      "Ġremains": 3339,
      "Ġtypically": 3340,
      "Ġprocesses": 3341,
      "Ġsurround": 3342,
      "Ġrare": 3343,
      "ĠMc": 3344,
      "Ġbacteria": 3345,
      "istry": 3346,
      "olar": 3347,
      "Ġeyes": 3348,
      "Ġhttp": 3349,
      "odies": 3350,
      "ription": 3351,
      "Ġdead": 3352,
      "Ġcultural": 3353,
      "ON": 3354,
      "ĠEngland": 3355,
      "ĠRet": 3356,
      "vest": 3357,
      "iece": 3358,
      "Ġdied": 3359,
      "ĠGovern": 3360,
      "entially": 3361,
      "Ġ2011": 3362,
      "Ġproperty": 3363,
      "Ġvict": 3364,
      "Ġrapid": 3365,
      "ĠAnother": 3366,
      "21": 3367,
      "Ġsaw": 3368,
      "uk": 3369,
      "Ġegg": 3370,
      "Ġcool": 3371,
      "ĠPeople": 3372,
      "Ġep": 3373,
      "equ": 3374,
      "uous": 3375,
      "oke": 3376,
      "ipl": 3377,
      "Ġadvant": 3378,
      "year": 3379,
      "Ġeating": 3380,
      "Ġsites": 3381,
      "Ġappropriate": 3382,
      "Ġmemory": 3383,
      "Ġking": 3384,
      "Ġcrop": 3385,
      "Ġmix": 3386,
      "Ġbasis": 3387,
      "Ġaccom": 3388,
      "mission": 3389,
      "ĠOver": 3390,
      "Ġtechniques": 3391,
      "Ġgives": 3392,
      "Wh": 3393,
      "Ġcold": 3394,
      "izes": 3395,
      "Ġadapt": 3396,
      "ĠAssoci": 3397,
      "ĠCong": 3398,
      "ĠLet": 3399,
      "estic": 3400,
      "Ġcitiz": 3401,
      "inese": 3402,
      "ĠDay": 3403,
      "Ġteacher": 3404,
      "come": 3405,
      "Ġtesting": 3406,
      "Ġcreating": 3407,
      "Ġteeth": 3408,
      "see": 3409,
      "iles": 3410,
      "bit": 3411,
      "arian": 3412,
      "king": 3413,
      "Ġadj": 3414,
      "rag": 3415,
      "Ġbreat": 3416,
      "Ġcenter": 3417,
      "Ġbehavi": 3418,
      "Ġhope": 3419,
      "resh": 3420,
      "Ġanything": 3421,
      "Ġeverything": 3422,
      "ĠCanada": 3423,
      "ĠJust": 3424,
      "Ġroom": 3425,
      "itect": 3426,
      "sect": 3427,
      "Ġson": 3428,
      "Ġtrade": 3429,
      "Ġcele": 3430,
      "Ġmiles": 3431,
      "Ġconstruction": 3432,
      "IC": 3433,
      "Ġfinal": 3434,
      "Ġcam": 3435,
      "ĠChurch": 3436,
      "Ġnothing": 3437,
      "ellig": 3438,
      "Ġimag": 3439,
      "oud": 3440,
      "Ġfuel": 3441,
      "Ġreasons": 3442,
      "cohol": 3443,
      "Ġhous": 3444,
      "Ġgradu": 3445,
      "Ġtransl": 3446,
      "imal": 3447,
      "med": 3448,
      "Ġstage": 3449,
      "life": 3450,
      "Ġresponsible": 3451,
      "aught": 3452,
      "Ġinstall": 3453,
      "cles": 3454,
      "ĠGreat": 3455,
      "Ġsugar": 3456,
      "iar": 3457,
      "Ġspirit": 3458,
      "Ġice": 3459,
      "Ġcou": 3460,
      "Ġbenefit": 3461,
      "ibrary": 3462,
      "ĠAre": 3463,
      "ama": 3464,
      "Ġmiddle": 3465,
      "ony": 3466,
      "Ġrecently": 3467,
      "Ġanti": 3468,
      "illing": 3469,
      "PA": 3470,
      "Ġexpected": 3471,
      "ondon": 3472,
      "aul": 3473,
      "Ġcoast": 3474,
      "Ġpan": 3475,
      "cember": 3476,
      "itable": 3477,
      "rim": 3478,
      "ĠInst": 3479,
      "Ġmonitor": 3480,
      "Ġtherapy": 3481,
      "Ġ2013": 3482,
      "Ġpractices": 3483,
      "Ġprofessional": 3484,
      "ĠProg": 3485,
      "eal": 3486,
      "head": 3487,
      "ĠHigh": 3488,
      "IV": 3489,
      "Ġaffected": 3490,
      "Ġexamples": 3491,
      "ĠSeptember": 3492,
      "ding": 3493,
      "ham": 3494,
      "Ġasked": 3495,
      "Ġ*": 3496,
      "back": 3497,
      "ĠRed": 3498,
      "40": 3499,
      "Ġapplications": 3500,
      "Ġbeyond": 3501,
      "Ġmid": 3502,
      "Ġconsequ": 3503,
      "ĠPark": 3504,
      "Ġreceive": 3505,
      "Ġconflic": 3506,
      "Ġdigital": 3507,
      "Ġbott": 3508,
      "Ġpen": 3509,
      "Ġcru": 3510,
      "Ġequipment": 3511,
      "ĠIsrael": 3512,
      "Ġfollowed": 3513,
      "ĠEach": 3514,
      "uments": 3515,
      "ĠWashington": 3516,
      "Ġx": 3517,
      "Ġolder": 3518,
      "Ġforces": 3519,
      "Ġlegal": 3520,
      "Ġopportunity": 3521,
      "Ġten": 3522,
      "60": 3523,
      "ĠOnce": 3524,
      "Ġfederal": 3525,
      "Ġyourself": 3526,
      "Ġdepend": 3527,
      "ira": 3528,
      "ought": 3529,
      "ĠJanuary": 3530,
      "strial": 3531,
      "Ġeconomy": 3532,
      "Ġwoman": 3533,
      "ica": 3534,
      "ĠCity": 3535,
      "Ġbul": 3536,
      "ĠPol": 3537,
      "Ġfear": 3538,
      "Ġcra": 3539,
      "ĠOctober": 3540,
      "ĠEducation": 3541,
      "bur": 3542,
      "Ġrock": 3543,
      "Ġautom": 3544,
      "Ġwrote": 3545,
      "This": 3546,
      "Ġproviding": 3547,
      "ĠTechn": 3548,
      "ford": 3549,
      "Ġchoose": 3550,
      "Ġtable": 3551,
      "Ġinsp": 3552,
      "Ġweather": 3553,
      "ĠPress": 3554,
      "unch": 3555,
      "ĠDis": 3556,
      "ĠTrans": 3557,
      "ĠFeb": 3558,
      "Ġrain": 3559,
      "ovember": 3560,
      "Ġcommand": 3561,
      "Ġdevice": 3562,
      "Ġeveryone": 3563,
      "Ġund": 3564,
      "water": 3565,
      "Ġtrying": 3566,
      "Ġalone": 3567,
      "Ġscreen": 3568,
      "Ġrecommend": 3569,
      "ĠEc": 3570,
      "Ġstrength": 3571,
      "Ġwon": 3572,
      "80": 3573,
      "ĠChinese": 3574,
      "Ġorganization": 3575,
      "Ġconnect": 3576,
      "Ġder": 3577,
      "Ġguid": 3578,
      "exic": 3579,
      "ĠCommun": 3580,
      "isl": 3581,
      "mosp": 3582,
      "Ġoverall": 3583,
      "Ġsett": 3584,
      "Ġconstit": 3585,
      "Ġsmaller": 3586,
      "Ġexposure": 3587,
      "Ġcompletely": 3588,
      "Ġdegree": 3589,
      "23": 3590,
      "wor": 3591,
      "Ġrise": 3592,
      "Ġbeg": 3593,
      "Ġcontroll": 3594,
      "Ġweb": 3595,
      "ED": 3596,
      "Ġpet": 3597,
      "uff": 3598,
      "Ġstandards": 3599,
      "Ġhyp": 3600,
      "ĠPat": 3601,
      "iples": 3602,
      "ĠSur": 3603,
      "Ġtit": 3604,
      "Ġcurrently": 3605,
      "Ġswe": 3606,
      "Ġpurch": 3607,
      "Ġpregn": 3608,
      "ara": 3609,
      "ĠCounty": 3610,
      "sec": 3611,
      "Ġobjects": 3612,
      "Ġgoes": 3613,
      "ĠUse": 3614,
      "ests": 3615,
      "ĠVir": 3616,
      "Ġearlier": 3617,
      "Ġmodels": 3618,
      "ospital": 3619,
      "Ġdate": 3620,
      "Ġdifferences": 3621,
      "Ġsuccessful": 3622,
      "Ġoccurs": 3623,
      "EN": 3624,
      "Ġmolec": 3625,
      "oe": 3626,
      "Ġeffort": 3627,
      "Ġinteresting": 3628,
      "Ġdiabetes": 3629,
      "ĠDevelop": 3630,
      "airs": 3631,
      "ĠProf": 3632,
      "Ġscale": 3633,
      "tery": 3634,
      "ran": 3635,
      "rees": 3636,
      "Ġformer": 3637,
      "men": 3638,
      "iable": 3639,
      "Ġrules": 3640,
      "Ġconstant": 3641,
      "ula": 3642,
      "Ġ23": 3643,
      "Ġwinter": 3644,
      "ĠWater": 3645,
      "Ġleave": 3646,
      "Ġinstru": 3647,
      "Ġlocation": 3648,
      "Ġisn": 3649,
      "Ġmeasures": 3650,
      "Ġenh": 3651,
      "Ġ2009": 3652,
      "Ġneigh": 3653,
      "Ġsequ": 3654,
      "enge": 3655,
      "ribute": 3656,
      "time": 3657,
      "Ġbirds": 3658,
      "Ġ22": 3659,
      "Ġhon": 3660,
      "ĠBlack": 3661,
      "anish": 3662,
      "Ġrob": 3663,
      "Ġperfect": 3664,
      "Ġshape": 3665,
      "Ġpredict": 3666,
      "Ġdrugs": 3667,
      "Ġbillion": 3668,
      "Ġmaintain": 3669,
      "Ġallowed": 3670,
      "Ġcommonly": 3671,
      "Ġnamed": 3672,
      "Ġdestro": 3673,
      "ĠMod": 3674,
      "icate": 3675,
      "Ġvisual": 3676,
      "Ġball": 3677,
      "____": 3678,
      "Ġ60": 3679,
      "Ġplaced": 3680,
      "Ġcontinued": 3681,
      "ĠDecember": 3682,
      "reet": 3683,
      "oday": 3684,
      "iest": 3685,
      "Ġdiscovered": 3686,
      "Ġchurch": 3687,
      "mitted": 3688,
      "Ġgold": 3689,
      "Ġmember": 3690,
      "ĠMa": 3691,
      "ĠMexic": 3692,
      "Ġapprox": 3693,
      "apter": 3694,
      "Ġcollection": 3695,
      "Ġpowerful": 3696,
      "Ġroad": 3697,
      "omb": 3698,
      "vert": 3699,
      "Ġvirt": 3700,
      "Ġhistorical": 3701,
      "rick": 3702,
      "aced": 3703,
      "wide": 3704,
      "Ġusers": 3705,
      "Ġoccup": 3706,
      "Ġcoming": 3707,
      "Ġcommerc": 3708,
      "ĠEast": 3709,
      "Ġjoint": 3710,
      "Ġsch": 3711,
      "ĠDon": 3712,
      "Ġvia": 3713,
      "Ġrich": 3714,
      "Ġ2008": 3715,
      "ĠCour": 3716,
      "Ġ193": 3717,
      "Ġcode": 3718,
      "ĠLondon": 3719,
      "Ġreduced": 3720,
      "Ġplanet": 3721,
      "Ġacqu": 3722,
      "ibly": 3723,
      "Ġeight": 3724,
      "ocr": 3725,
      "Ġwond": 3726,
      "edom": 3727,
      "Ġsteps": 3728,
      "AC": 3729,
      "eech": 3730,
      "Ġtrack": 3731,
      "Ġacad": 3732,
      "ype": 3733,
      "ĠGeneral": 3734,
      "Ġrule": 3735,
      "ogen": 3736,
      "Ġidentified": 3737,
      "Ġcateg": 3738,
      "amic": 3739,
      "Ġmob": 3740,
      "Ġsect": 3741,
      "Ġfruit": 3742,
      "enty": 3743,
      "Ġgave": 3744,
      "lin": 3745,
      "Ġgenetic": 3746,
      "Ġmis": 3747,
      "Ġmajority": 3748,
      "Ġnote": 3749,
      "ĠThus": 3750,
      "Ġteach": 3751,
      "Ġelectr": 3752,
      "Ġapplied": 3753,
      "ensity": 3754,
      "ocks": 3755,
      "Ġmiss": 3756,
      "ĠTheir": 3757,
      "Ġsigns": 3758,
      "ĠNovember": 3759,
      "ĠSee": 3760,
      "Ġtox": 3761,
      "Ġfair": 3762,
      "rig": 3763,
      "load": 3764,
      "Ġexec": 3765,
      "Ġpow": 3766,
      "ĠSan": 3767,
      "Ġphilos": 3768,
      "Ġperhaps": 3769,
      "Ġcourt": 3770,
      "Ġcontext": 3771,
      "Ġbelief": 3772,
      "Ġmax": 3773,
      "Ġenter": 3774,
      "Ġbra": 3775,
      "book": 3776,
      "ĠVal": 3777,
      "ĠRoman": 3778,
      "ĠCur": 3779,
      "Ġformed": 3780,
      "ingu": 3781,
      "bre": 3782,
      "Ġcompar": 3783,
      "Ġshowed": 3784,
      "Ġillness": 3785,
      "IT": 3786,
      "con": 3787,
      "ios": 3788,
      "Ġgir": 3789,
      "irection": 3790,
      "cious": 3791,
      "ĠUnder": 3792,
      "ĠArch": 3793,
      "Ġmouth": 3794,
      "Ġstrugg": 3795,
      "ĠCoun": 3796,
      "Ġden": 3797,
      "ĠIS": 3798,
      "aters": 3799,
      "ĠJournal": 3800,
      "ĠLaw": 3801,
      "aled": 3802,
      "ruary": 3803,
      "Ġremember": 3804,
      "Ġcities": 3805,
      "uit": 3806,
      "Ġimmune": 3807,
      "oration": 3808,
      "Ġdidn": 3809,
      "Ġpresence": 3810,
      "aid": 3811,
      "Ġbaby": 3812,
      "ĠHouse": 3813,
      "ste": 3814,
      "Ġvill": 3815,
      "ĠSystem": 3816,
      "Ġmachine": 3817,
      "Ġcook": 3818,
      "Ġstories": 3819,
      "Ġlimit": 3820,
      "Ġpeace": 3821,
      "Ġstatus": 3822,
      "Ġchoice": 3823,
      "Ġchanged": 3824,
      "Ġactions": 3825,
      "Ġemissions": 3826,
      "Ġâ": 3827,
      "Ġfully": 3828,
      "Ġsitu": 3829,
      "Ġworth": 3830,
      "orge": 3831,
      "Ġmig": 3832,
      "Ġemp": 3833,
      "Ġsymbol": 3834,
      "gery": 3835,
      "24": 3836,
      "co": 3837,
      "Ġ2015": 3838,
      "Ġpatterns": 3839,
      "que": 3840,
      "ament": 3841,
      "alt": 3842,
      "ĠDNA": 3843,
      "Ġ195": 3844,
      "Ġ2014": 3845,
      "Ġnutri": 3846,
      "Ġassign": 3847,
      "Ġmoment": 3848,
      "iate": 3849,
      "aint": 3850,
      "phas": 3851,
      "Ġassist": 3852,
      "known": 3853,
      "pped": 3854,
      "ĠRo": 3855,
      "199": 3856,
      "Ġfemale": 3857,
      "Ġcapacity": 3858,
      "Ġasse": 3859,
      "Ġtou": 3860,
      "Ġrelatively": 3861,
      "Ġincreases": 3862,
      "aste": 3863,
      "rab": 3864,
      "emy": 3865,
      "Ġprice": 3866,
      "Ġpromot": 3867,
      "craft": 3868,
      "Ġuser": 3869,
      "Ġatmosp": 3870,
      "ords": 3871,
      "Ġanx": 3872,
      "Ġmoving": 3873,
      "Ġalcohol": 3874,
      "iful": 3875,
      "ĠProt": 3876,
      "ĠUnion": 3877,
      "Ġpiece": 3878,
      "ĠConf": 3879,
      "gypt": 3880,
      "bl": 3881,
      "encies": 3882,
      "Ġincor": 3883,
      "Ġefficient": 3884,
      "ĠChildren": 3885,
      "Ġworked": 3886,
      "udd": 3887,
      "Ġversion": 3888,
      "Ġstaff": 3889,
      "Ġfactor": 3890,
      "Ġdisplay": 3891,
      "aign": 3892,
      "Ġpoly": 3893,
      "Ġhair": 3894,
      "ees": 3895,
      "iring": 3896,
      "Ġillust": 3897,
      "Ġcry": 3898,
      "Ġappears": 3899,
      "more": 3900,
      "Ġriver": 3901,
      "rief": 3902,
      "Ġtask": 3903,
      "related": 3904,
      "ĠJewish": 3905,
      "can": 3906,
      "Ġ:": 3907,
      "off": 3908,
      "Ġstim": 3909,
      "hemat": 3910,
      "Ġrat": 3911,
      "Ġfresh": 3912,
      "Ġtissue": 3913,
      "Ġast": 3914,
      "Ġ27": 3915,
      "Ġsusp": 3916,
      "Ġoffers": 3917,
      "Ġforward": 3918,
      "Ġopportunities": 3919,
      "ĠChe": 3920,
      "Ġproperties": 3921,
      "Ġgiving": 3922,
      "ev": 3923,
      "Ġtele": 3924,
      "ĠGermany": 3925,
      "ss": 3926,
      "Ġarchitect": 3927,
      "Ġeducational": 3928,
      "Ġchallenges": 3929,
      "ĠBi": 3930,
      "Ġevolution": 3931,
      "ĠAustralia": 3932,
      "Ġgarden": 3933,
      "Ġconstruct": 3934,
      "Ġforeign": 3935,
      "ĠAut": 3936,
      "Ġeffic": 3937,
      "force": 3938,
      "ocol": 3939,
      "house": 3940,
      "ĠEvery": 3941,
      "Ġ26": 3942,
      "Ġexisting": 3943,
      "Ġexpand": 3944,
      "Ġ2007": 3945,
      "Ġ28": 3946,
      "Ġthousands": 3947,
      "Ġinnov": 3948,
      "Ġnames": 3949,
      "Ġfamous": 3950,
      "ternal": 3951,
      "osy": 3952,
      "Ġhuge": 3953,
      "rupt": 3954,
      "edia": 3955,
      "Ġvo": 3956,
      "Ġdistance": 3957,
      "Ġunit": 3958,
      "Ġrepe": 3959,
      "Ġing": 3960,
      "Ġreports": 3961,
      "Ġstyle": 3962,
      "Ġincome": 3963,
      "ession": 3964,
      "Ġcontract": 3965,
      "ĠRel": 3966,
      "Ġantib": 3967,
      "Ġstar": 3968,
      "ĠUK": 3969,
      "Ġqual": 3970,
      "abilities": 3971,
      "ĠPhil": 3972,
      "inated": 3973,
      "Ġpicture": 3974,
      "Ġcomponents": 3975,
      "Ġmission": 3976,
      "Ġinstance": 3977,
      "ĠCongress": 3978,
      "Ġfindings": 3979,
      ");": 3980,
      "Ġvision": 3981,
      "Ġconvers": 3982,
      "iny": 3983,
      "ĠSociety": 3984,
      "Ġchance": 3985,
      "Ġwrong": 3986,
      "Ġfriend": 3987,
      "ĠLat": 3988,
      "Ġbelieved": 3989,
      "Ġaim": 3990,
      "Ġconsumption": 3991,
      "ĠFrance": 3992,
      "Ġtransfer": 3993,
      "ĠPublic": 3994,
      "Ġguide": 3995,
      "Ġbalance": 3996,
      "aur": 3997,
      "Ġmut": 3998,
      "Ġweak": 3999,
      "Ġoffice": 4000,
      "ĠGreen": 4001,
      "ĠToday": 4002,
      "Ġroot": 4003,
      "Ġmal": 4004,
      "Ġabsor": 4005,
      "Ġplanning": 4006,
      "Ġobserved": 4007,
      "Ġwid": 4008,
      "ĠAng": 4009,
      "Ġpassed": 4010,
      "ĠFebruary": 4011,
      "Ġwatch": 4012,
      "Ġassum": 4013,
      "apers": 4014,
      "Ġexplain": 4015,
      "Ġevalu": 4016,
      "ĠEnvironment": 4017,
      "Ġequal": 4018,
      "care": 4019,
      "Ġcitizens": 4020,
      "Ġcollabor": 4021,
      "Ġdirection": 4022,
      "Ġrunning": 4023,
      "amb": 4024,
      "era": 4025,
      "odes": 4026,
      "rehens": 4027,
      "asion": 4028,
      "Ġblue": 4029,
      "Ġsuggests": 4030,
      "resp": 4031,
      "Ġiron": 4032,
      "rieved": 4033,
      "ĠLord": 4034,
      "Ġsignificantly": 4035,
      "icip": 4036,
      "Ġsurvey": 4037,
      "Ġmilk": 4038,
      "eding": 4039,
      "Ġgain": 4040,
      "Ġregions": 4041,
      "ifically": 4042,
      "ĠTH": 4043,
      "rec": 4044,
      "Ġnative": 4045,
      "Ġcarried": 4046,
      "Ġdetect": 4047,
      "Ġeventually": 4048,
      "bed": 4049,
      "lor": 4050,
      "Ġdisorder": 4051,
      "ald": 4052,
      "pris": 4053,
      "Ġexperiences": 4054,
      "ero": 4055,
      "ĠEgypt": 4056,
      "ĠMary": 4057,
      "ĠSpec": 4058,
      "iences": 4059,
      "Ġnovel": 4060,
      "ĠAssociation": 4061,
      "Ġstrategies": 4062,
      "Ġplastic": 4063,
      "Ġbreast": 4064,
      "iance": 4065,
      "rome": 4066,
      "Ġattract": 4067,
      "omas": 4068,
      "Ġfunctions": 4069,
      "Ġextremely": 4070,
      "ĠPal": 4071,
      "Ġcelebr": 4072,
      "Ġtreated": 4073,
      "ĠJames": 4074,
      "Ġinstruct": 4075,
      "Ġelement": 4076,
      "Ġclassroom": 4077,
      "Ġresistance": 4078,
      "Ġhappen": 4079,
      "hors": 4080,
      "Ġbank": 4081,
      "Ġseven": 4082,
      "Ġexhib": 4083,
      "Ġplans": 4084,
      "Ġfavor": 4085,
      "Ġfert": 4086,
      "Ġspring": 4087,
      "ching": 4088,
      "Ġdetails": 4089,
      "ygen": 4090,
      "Ġsac": 4091,
      "âĢĿ,": 4092,
      "Ġorganizations": 4093,
      "Ġbox": 4094,
      "Ġgoals": 4095,
      "Ġcommercial": 4096,
      "Ġsuppl": 4097,
      "Ġdecades": 4098,
      "Ġimmediately": 4099,
      "Ġoptions": 4100,
      "Ġbound": 4101,
      "Ġexcess": 4102,
      "Ġglass": 4103,
      "ĠTherefore": 4104,
      "Ġtopic": 4105,
      "Ġtruth": 4106,
      "Ġseparate": 4107,
      "ĠBra": 4108,
      "70": 4109,
      "Ġexperim": 4110,
      "ĠWestern": 4111,
      "Ġfeature": 4112,
      "ĠColle": 4113,
      "\",": 4114,
      "iant": 4115,
      "ĠStudents": 4116,
      "Ġheavy": 4117,
      "Ġapply": 4118,
      "Ġhighest": 4119,
      "Ġintellig": 4120,
      "Ġdefined": 4121,
      "St": 4122,
      "Ġfigure": 4123,
      "Ġeasier": 4124,
      "Ġdepression": 4125,
      "Ġinsect": 4126,
      "Ġutil": 4127,
      "ky": 4128,
      "Ġmuscle": 4129,
      "Ġdivid": 4130,
      "Ġpick": 4131,
      "Ġreality": 4132,
      "Ġgeneration": 4133,
      "Ġexplore": 4134,
      "Ġrequirements": 4135,
      "Ġlearned": 4136,
      "Ġfix": 4137,
      "Ġpresented": 4138,
      "eces": 4139,
      "Ġdat": 4140,
      "Ġmale": 4141,
      "iox": 4142,
      "Ġindustrial": 4143,
      "ĠInter": 4144,
      "Ġtechnologies": 4145,
      "iding": 4146,
      "igen": 4147,
      "Ġmap": 4148,
      "AL": 4149,
      "nes": 4150,
      "orage": 4151,
      "ĠMich": 4152,
      "Ġspect": 4153,
      "Ġitems": 4154,
      "Ġjournal": 4155,
      "Ġfile": 4156,
      "ĠMor": 4157,
      "ĠInternet": 4158,
      "ĠDavid": 4159,
      "Ġboard": 4160,
      "ĠAv": 4161,
      "Ġstructures": 4162,
      "Ġfaith": 4163,
      "Ġurban": 4164,
      "Ġbed": 4165,
      "Ġmedicine": 4166,
      "part": 4167,
      "wards": 4168,
      "Ġmo": 4169,
      "Ġliqu": 4170,
      "ĠDec": 4171,
      "Ġclinical": 4172,
      "Ġsave": 4173,
      "Ġ2016": 4174,
      "Ġconducted": 4175,
      "ĠDes": 4176,
      "isation": 4177,
      "ĠRem": 4178,
      "ĠUN": 4179,
      "Ġemphas": 4180,
      "uls": 4181,
      "uing": 4182,
      "ĠJapanese": 4183,
      "asks": 4184,
      "ĠRev": 4185,
      "Ġliterature": 4186,
      "yd": 4187,
      "oma": 4188,
      "Ġbecoming": 4189,
      "ken": 4190,
      "ĠMat": 4191,
      "Ġpp": 4192,
      "Ġmer": 4193,
      "Ġperspect": 4194,
      "Ġ2000": 4195,
      "Ġserve": 4196,
      "Ġphen": 4197,
      "enth": 4198,
      "DA": 4199,
      "Ġrot": 4200,
      "ulum": 4201,
      "Ġspeech": 4202,
      "Ġcontrast": 4203,
      "Ġhom": 4204,
      "Ch": 4205,
      "ĠSocial": 4206,
      "ologist": 4207,
      "Ġdestroy": 4208,
      "Ġpresident": 4209,
      "ĠWork": 4210,
      "ĠCouncil": 4211,
      "ĠFood": 4212,
      "ux": 4213,
      "Ġ+": 4214,
      "Ġviolence": 4215,
      "Ġsexual": 4216,
      "Ġbone": 4217,
      "Ġvary": 4218,
      "Ġelectricity": 4219,
      "Ġmoved": 4220,
      "Ġapproximately": 4221,
      "Ġlegisl": 4222,
      "Ġdecisions": 4223,
      "Ġcand": 4224,
      "Ġintroduced": 4225,
      "Ġopin": 4226,
      "Ġbodies": 4227,
      "uild": 4228,
      "Ġchallenge": 4229,
      "ĠBel": 4230,
      "change": 4231,
      "Ġslight": 4232,
      "Ġiniti": 4233,
      "ographic": 4234,
      "Ġagg": 4235,
      "pan": 4236,
      "che": 4237,
      "Ġhousehold": 4238,
      "ĠPlan": 4239,
      "ingly": 4240,
      "EC": 4241,
      "Ġtrust": 4242,
      "Ġ#": 4243,
      "Ġremove": 4244,
      "Ġalternative": 4245,
      "29": 4246,
      "ares": 4247,
      "urally": 4248,
      "Ġstream": 4249,
      "Ġactual": 4250,
      "ĠFound": 4251,
      "Ġperformed": 4252,
      "ĠHuman": 4253,
      "ĠTur": 4254,
      "Ġfig": 4255,
      "ĠOb": 4256,
      "zz": 4257,
      "Ġbuy": 4258,
      "Ġdesp": 4259,
      "Ġsample": 4260,
      "Ġcycle": 4261,
      "ube": 4262,
      "Ġmag": 4263,
      "26": 4264,
      "Ġparty": 4265,
      "Ġesc": 4266,
      "ĠFurther": 4267,
      "Ġign": 4268,
      "Ġaspects": 4269,
      "Ġrelease": 4270,
      "Ġtemperatures": 4271,
      "Ġfrequently": 4272,
      "tee": 4273,
      "Ġrecommended": 4274,
      "Ġneu": 4275,
      "Ġexperiment": 4276,
      "Ġlived": 4277,
      "Ġkilled": 4278,
      "Ġresource": 4279,
      "ĠMic": 4280,
      "Ġhomes": 4281,
      "ĠVol": 4282,
      "cast": 4283,
      "Ġletter": 4284,
      "Ġnotes": 4285,
      "Ġflood": 4286,
      "Ġfilm": 4287,
      "ĠProgram": 4288,
      "Ġmetal": 4289,
      "Ġnutrition": 4290,
      "ophy": 4291,
      "antic": 4292,
      "Ġdoub": 4293,
      "Ġbuildings": 4294,
      "Ġkid": 4295,
      "Ġestimated": 4296,
      "27": 4297,
      "Ġves": 4298,
      "erate": 4299,
      "Ġcausing": 4300,
      "Ġcollege": 4301,
      "ĠAir": 4302,
      "ulf": 4303,
      "Ġrecords": 4304,
      "Ġdyn": 4305,
      "Ġplat": 4306,
      "Ġnumerous": 4307,
      "Ġreleased": 4308,
      "Ġconnected": 4309,
      "char": 4310,
      "ĠTwo": 4311,
      "ogle": 4312,
      "Ġpopulations": 4313,
      "Ġnuclear": 4314,
      "Ġ80": 4315,
      "ously": 4316,
      "Ġwidely": 4317,
      "ĠGeorge": 4318,
      "ĠSam": 4319,
      "Ġclearly": 4320,
      "Ġwanted": 4321,
      "bal": 4322,
      "Ġappe": 4323,
      "Ġpolicies": 4324,
      "Ġdisorders": 4325,
      "II": 4326,
      "Ġgets": 4327,
      "Ġ2006": 4328,
      "28": 4329,
      "Ġorganic": 4330,
      "Ġdrive": 4331,
      "Ġparticipants": 4332,
      "Ġindependent": 4333,
      "Ġdiscussion": 4334,
      "ortion": 4335,
      "ologists": 4336,
      "ĠCollege": 4337,
      "Ġrisks": 4338,
      "ĠPaul": 4339,
      "ĠNet": 4340,
      "Ġstore": 4341,
      "othes": 4342,
      "Ġthr": 4343,
      "Ġ2017": 4344,
      "ĠRetrieved": 4345,
      "Ġchronic": 4346,
      "clus": 4347,
      "Ġcampaign": 4348,
      "ped": 4349,
      "porary": 4350,
      "Ġanyone": 4351,
      "Ġunivers": 4352,
      "Ġcombination": 4353,
      "uses": 4354,
      "Ġ190": 4355,
      "ĠGovernment": 4356,
      "ager": 4357,
      "Ġdogs": 4358,
      "Ġchanging": 4359,
      "icial": 4360,
      "Ġoperations": 4361,
      "ressive": 4362,
      "ĠLike": 4363,
      "ias": 4364,
      "ĠTex": 4365,
      "SA": 4366,
      "ĠGreek": 4367,
      "Ġsolutions": 4368,
      "Ġhear": 4369,
      "Ġsetting": 4370,
      "Ġbattle": 4371,
      "Ġtrib": 4372,
      "ĠRepublic": 4373,
      "ida": 4374,
      "Ġprefer": 4375,
      "Ġbottom": 4376,
      "Ġoxygen": 4377,
      "Ġready": 4378,
      "Ġfields": 4379,
      "ĠUsing": 4380,
      "Ġvitamin": 4381,
      "Ġpartners": 4382,
      "tical": 4383,
      "Ġreducing": 4384,
      "Ġcharacteristics": 4385,
      "Ġtour": 4386,
      "ĠBoth": 4387,
      "Ġturned": 4388,
      "Ġdistribution": 4389,
      "Ġassessment": 4390,
      "ĠRober": 4391,
      "Ġburn": 4392,
      "Ġstarting": 4393,
      "Ġfailure": 4394,
      "Ġstatement": 4395,
      "Ġminor": 4396,
      "Ġ29": 4397,
      "Ġded": 4398,
      "Ġcovered": 4399,
      "EM": 4400,
      "ructure": 4401,
      "Ġfreedom": 4402,
      "Ġdri": 4403,
      "Ġemail": 4404,
      "Ġdrop": 4405,
      "rant": 4406,
      "olved": 4407,
      "ĠSub": 4408,
      "Ġnoted": 4409,
      "Ġgames": 4410,
      "iveness": 4411,
      "ĠSom": 4412,
      "rest": 4413,
      "Ġhappens": 4414,
      "ĠWeb": 4415,
      "Ġreligion": 4416,
      "tered": 4417,
      "Ġgraph": 4418,
      "Ġtrou": 4419,
      "Ġprepar": 4420,
      "elines": 4421,
      "Ġfeeling": 4422,
      "Ġcreation": 4423,
      "Ġsurgery": 4424,
      "Ġsav": 4425,
      "Ġdangerous": 4426,
      "imens": 4427,
      "Ġinvolves": 4428,
      "Ġ186": 4429,
      "Ġrelationships": 4430,
      "Ġexactly": 4431,
      "Ġshap": 4432,
      "Ġencourage": 4433,
      "ĠMr": 4434,
      "ĠCourt": 4435,
      "urance": 4436,
      "Ġreference": 4437,
      "ĠOrgan": 4438,
      "Ġinflamm": 4439,
      "ĠSpanish": 4440,
      "ĠNat": 4441,
      "Ġinternal": 4442,
      "Ġconv": 4443,
      "Ġarm": 4444,
      "Ġconnection": 4445,
      "Ġmostly": 4446,
      "Ġgod": 4447,
      "Ġremoved": 4448,
      "Ġocean": 4449,
      "Ġresulting": 4450,
      "ĠTest": 4451,
      "Ġreferred": 4452,
      "ĠOff": 4453,
      "ĠLa": 4454,
      "Ġtooth": 4455,
      "ollow": 4456,
      "ĠIts": 4457,
      "Ġpi": 4458,
      "rog": 4459,
      "ognitive": 4460,
      "ilit": 4461,
      "Ġtrig": 4462,
      "order": 4463,
      "Ġsand": 4464,
      "Ġterrit": 4465,
      "Ġinjury": 4466,
      "Ġauthors": 4467,
      "Ġgene": 4468,
      "Ġfinding": 4469,
      "Ġcircum": 4470,
      "anging": 4471,
      "Ġanxiety": 4472,
      "Ġnor": 4473,
      "met": 4474,
      "Ġisol": 4475,
      "Ġwhom": 4476,
      "ST": 4477,
      "Ġacademic": 4478,
      "Ġrul": 4479,
      "Ġhelped": 4480,
      "works": 4481,
      "Ġtechnique": 4482,
      "ĠCath": 4483,
      "Ġcris": 4484,
      "Ġvessel": 4485,
      "ĠMuseum": 4486,
      "essor": 4487,
      "raw": 4488,
      "Ġreplace": 4489,
      "Ġinitial": 4490,
      "ieties": 4491,
      "Ġtim": 4492,
      "Ġphysic": 4493,
      "Ġcounter": 4494,
      "Ġinfections": 4495,
      "Ġrace": 4496,
      "ĠGra": 4497,
      "Ġtrend": 4498,
      "Ġdistinct": 4499,
      "Ġthick": 4500,
      "ĠMark": 4501,
      "Ġmentioned": 4502,
      "Ġdegrees": 4503,
      "Ġfine": 4504,
      "Ġmeeting": 4505,
      "ĠNAS": 4506,
      "Ġexperts": 4507,
      "ĠDevelopment": 4508,
      "ĠHel": 4509,
      "olid": 4510,
      "Ġdram": 4511,
      "hetic": 4512,
      "Ġseeds": 4513,
      "Ġ189": 4514,
      "ĠDi": 4515,
      "unction": 4516,
      "Ġconflict": 4517,
      "ortunately": 4518,
      "Ġproperly": 4519,
      "ĠDem": 4520,
      "Ġreb": 4521,
      "Ġbackground": 4522,
      "ĠFore": 4523,
      "Ġheard": 4524,
      "ĠAbout": 4525,
      "Ġexperienced": 4526,
      "cont": 4527,
      "Ġannual": 4528,
      "ĠSecond": 4529,
      "Ġlayer": 4530,
      "Ġclasses": 4531,
      "Ġscen": 4532,
      "Ġ2005": 4533,
      "atically": 4534,
      "pping": 4535,
      "Ġload": 4536,
      "erences": 4537,
      "Ġ...": 4538,
      "Ġadvanced": 4539,
      "Â°": 4540,
      "ĠRich": 4541,
      "ping": 4542,
      "Ġradio": 4543,
      "Ġpric": 4544,
      "Ġadvantage": 4545,
      "key": 4546,
      "Ġprinciples": 4547,
      "Ġemotional": 4548,
      "Ġupper": 4549,
      "Ġhorm": 4550,
      "amental": 4551,
      "Ġseed": 4552,
      "Ġincorpor": 4553,
      "Ġunf": 4554,
      "Ġexcell": 4555,
      "onds": 4556,
      "roph": 4557,
      "ception": 4558,
      "raction": 4559,
      "Ġbeautiful": 4560,
      "Ġstorage": 4561,
      "ĠâĢ¦": 4562,
      "Ġprofession": 4563,
      "Ġconfirm": 4564,
      "Ġreprodu": 4565,
      "ulating": 4566,
      "Ġvul": 4567,
      "erved": 4568,
      "AM": 4569,
      "Ġcore": 4570,
      "Ġleads": 4571,
      "ij": 4572,
      "Ġelimin": 4573,
      "ĠProject": 4574,
      "ĠHen": 4575,
      "Ġregarding": 4576,
      "ĠSun": 4577,
      "ĠMount": 4578,
      "Ġserved": 4579,
      "riage": 4580,
      "riculum": 4581,
      "Ġgrant": 4582,
      "ET": 4583,
      "Ġadjust": 4584,
      "Ġmessage": 4585,
      "Ġgender": 4586,
      "Ġdie": 4587,
      "Ġmeat": 4588,
      "Ġdiss": 4589,
      "Ġdetermined": 4590,
      "ĠPhys": 4591,
      "ishing": 4592,
      "ressed": 4593,
      "Ġkept": 4594,
      "Ġalg": 4595,
      "Ġspot": 4596,
      "Ġmist": 4597,
      "Ġwealth": 4598,
      "Ġbelong": 4599,
      "anch": 4600,
      "Ġpromote": 4601,
      "Ġexposed": 4602,
      "Ġpal": 4603,
      "oyal": 4604,
      "Ġinvolve": 4605,
      "ĠWhite": 4606,
      "ĠJews": 4607,
      "Ġhelping": 4608,
      "do": 4609,
      "Ġlandsc": 4610,
      "Ġjour": 4611,
      "ocal": 4612,
      "Ġpreviously": 4613,
      "Ġdepending": 4614,
      "Ġsolid": 4615,
      "Ġpollution": 4616,
      "ander": 4617,
      "ĠMal": 4618,
      "Ġisland": 4619,
      "Ġradiation": 4620,
      "Ġinh": 4621,
      "Ġgrass": 4622,
      "Ġeffectively": 4623,
      "ĠST": 4624,
      "Ġdecided": 4625,
      "Ġmanufacture": 4626,
      "Ġconcerns": 4627,
      "ĠBro": 4628,
      "Ġtum": 4629,
      "Ġinterested": 4630,
      "Ġmeant": 4631,
      "rosc": 4632,
      "Ġ90": 4633,
      "Ġexpert": 4634,
      "What": 4635,
      "ĠPort": 4636,
      "Ġship": 4637,
      "Ġfarmers": 4638,
      "Ġvolume": 4639,
      "Ġsaying": 4640,
      "Ġinfluen": 4641,
      "ĠBen": 4642,
      "Ġcomprehens": 4643,
      "Ġlinked": 4644,
      "Ġvot": 4645,
      "Ġinterpret": 4646,
      "Ġupd": 4647,
      "urt": 4648,
      "mark": 4649,
      "Ġspent": 4650,
      "Ġ70": 4651,
      "iverse": 4652,
      "Ġunits": 4653,
      "Ġamounts": 4654,
      "Ġcomfort": 4655,
      "Ġobvious": 4656,
      "Ġgenes": 4657,
      "PS": 4658,
      "Ġprepared": 4659,
      "ategy": 4660,
      "Ġkill": 4661,
      "Ġtransform": 4662,
      "ĠIsland": 4663,
      "Ġcoal": 4664,
      "rm": 4665,
      "Ġdescribe": 4666,
      "Ġplease": 4667,
      "Ġvolunt": 4668,
      "Ġmotor": 4669,
      "ago": 4670,
      "Ġlung": 4671,
      "rows": 4672,
      "ndrome": 4673,
      "Ġreaction": 4674,
      "35": 4675,
      "Ġstrategy": 4676,
      "Ġpresc": 4677,
      "Ġrelevant": 4678,
      "ĠCle": 4679,
      "Ġeggs": 4680,
      "Ġmanage": 4681,
      "Ġsort": 4682,
      "ĠEv": 4683,
      "stitution": 4684,
      "Ġhour": 4685,
      "Ġcredit": 4686,
      "ĠIsl": 4687,
      "rete": 4688,
      "Ġexpression": 4689,
      "cers": 4690,
      "uration": 4691,
      "Ġoption": 4692,
      "ĠTexas": 4693,
      "roup": 4694,
      "osystem": 4695,
      "uted": 4696,
      "aughter": 4697,
      "Ġcast": 4698,
      "Ġconcern": 4699,
      "Ġsem": 4700,
      "lim": 4701,
      "Ġconservation": 4702,
      "Ġpun": 4703,
      "ĠStep": 4704,
      "ĠJe": 4705,
      "Ġconsult": 4706,
      "ĠMexico": 4707,
      "Ġprocessing": 4708,
      "Ġwest": 4709,
      "Ġimproved": 4710,
      "Ġengineering": 4711,
      "Ġpret": 4712,
      "Ġcompleted": 4713,
      "ĠTreat": 4714,
      "oking": 4715,
      "Ġowners": 4716,
      "ii": 4717,
      "ributed": 4718,
      "ĠNASA": 4719,
      "Ġhearing": 4720,
      "Ġround": 4721,
      "nic": 4722,
      "Ġofficial": 4723,
      "Ġaid": 4724,
      "Ġseek": 4725,
      "Ġbud": 4726,
      "Ġmathemat": 4727,
      "Ġoperation": 4728,
      "place": 4729,
      "rum": 4730,
      "Ġnorthern": 4731,
      "ĠBas": 4732,
      "Ġreached": 4733,
      "Ġsong": 4734,
      "Ġarticles": 4735,
      "itz": 4736,
      "ball": 4737,
      "Ġdefic": 4738,
      "ĠAsia": 4739,
      "Ġinstitutions": 4740,
      "ĠHIV": 4741,
      "ĠPost": 4742,
      "Ġsouthern": 4743,
      "ĠGet": 4744,
      "Ġinvent": 4745,
      "Ġhop": 4746,
      "Ġmel": 4747,
      "Ġconclud": 4748,
      "ĠService": 4749,
      "Ġefficiency": 4750,
      "Ġprofessor": 4751,
      "onic": 4752,
      "wood": 4753,
      "Ġoutput": 4754,
      "Ġmotiv": 4755,
      "Ġpip": 4756,
      "Ġdiscover": 4757,
      "ĠThomas": 4758,
      "Ġvegetables": 4759,
      "Ġatmosphere": 4760,
      "Ġyouth": 4761,
      "orial": 4762,
      "ĠMars": 4763,
      "Ġchemicals": 4764,
      "leg": 4765,
      "Ġbrother": 4766,
      "alled": 4767,
      "Ġappoint": 4768,
      "ĠDef": 4769,
      "Ġmanner": 4770,
      "Ġpieces": 4771,
      "Ġconcepts": 4772,
      "ĠMake": 4773,
      "clusion": 4774,
      "ĠAD": 4775,
      "ĠBer": 4776,
      "ams": 4777,
      "vision": 4778,
      "ya": 4779,
      "Ġlib": 4780,
      "ĠMiss": 4781,
      "Ġsustainable": 4782,
      "well": 4783,
      "inter": 4784,
      "zing": 4785,
      "Ġclos": 4786,
      "ded": 4787,
      "ĠOld": 4788,
      "Ġnotice": 4789,
      "Ġhospital": 4790,
      "Ġphase": 4791,
      "ĠSen": 4792,
      "Ġdefinition": 4793,
      "za": 4794,
      "Ġrevolution": 4795,
      "Ġcontinues": 4796,
      "Ġsquare": 4797,
      "och": 4798,
      "45": 4799,
      "Ġawareness": 4800,
      "Ġcere": 4801,
      "Ġlooks": 4802,
      "ĠFre": 4803,
      "ĠSal": 4804,
      "mat": 4805,
      "ria": 4806,
      "Ġvaccine": 4807,
      "Ġgrade": 4808,
      "rep": 4809,
      "rates": 4810,
      "Ġsynt": 4811,
      "Ġplatform": 4812,
      "ĠVirgin": 4813,
      "Ġdiagnosis": 4814,
      "OS": 4815,
      "board": 4816,
      "uable": 4817,
      "Ġfinally": 4818,
      "Ġsecret": 4819,
      "Ġmainly": 4820,
      "ifying": 4821,
      "Ġauthority": 4822,
      "ĠJer": 4823,
      "Ġdrinking": 4824,
      "aj": 4825,
      "Ġhit": 4826,
      "Ġbegins": 4827,
      "Ġpurposes": 4828,
      "Ġban": 4829,
      "ĠBritain": 4830,
      "ĠAddition": 4831,
      "Ġstorm": 4832,
      "Ġrecorded": 4833,
      "isher": 4834,
      "Ġdro": 4835,
      "Ġcharge": 4836,
      "iling": 4837,
      "Ġpark": 4838,
      "ĠCivil": 4839,
      "ĠScient": 4840,
      "ĠMac": 4841,
      "ault": 4842,
      "Ġproposed": 4843,
      "ĠMart": 4844,
      "ta": 4845,
      "standing": 4846,
      "Ġpages": 4847,
      "Ġlanguages": 4848,
      "ĠCentral": 4849,
      "Ġstation": 4850,
      "ĠLou": 4851,
      "Ġwonder": 4852,
      "Ġintended": 4853,
      "Ġsignal": 4854,
      "Ġpractical": 4855,
      "Ġallowing": 4856,
      "Ġmort": 4857,
      "Ġlesson": 4858,
      "ĠThrough": 4859,
      "Ġsupported": 4860,
      "comes": 4861,
      "Ġshared": 4862,
      "ĠMet": 4863,
      "Ġmorning": 4864,
      "ounced": 4865,
      "ĠAny": 4866,
      "Ġsituations": 4867,
      "Ġremained": 4868,
      "Ġextensive": 4869,
      "Ġconver": 4870,
      "Ġforced": 4871,
      "lease": 4872,
      "Ġprocedure": 4873,
      "Ġarmy": 4874,
      "Ġmath": 4875,
      "Ġyellow": 4876,
      "Ġcontribute": 4877,
      "Ġsufficient": 4878,
      "Ġvulner": 4879,
      "Ġoffered": 4880,
      "ĠDist": 4881,
      "Ġideal": 4882,
      "rence": 4883,
      "Ġnav": 4884,
      "Ġfacts": 4885,
      "ek": 4886,
      "lick": 4887,
      "Ġmaster": 4888,
      "Ġsamples": 4889,
      "Ġreduction": 4890,
      "Ġcertainly": 4891,
      "berg": 4892,
      "'ll": 4893,
      "RE": 4894,
      "Ġfocused": 4895,
      "Ġtaught": 4896,
      "Ġ2018": 4897,
      "Ġjobs": 4898,
      "kin": 4899,
      "Ġrenew": 4900,
      "Ġfort": 4901,
      "ĠWomen": 4902,
      "Ġcareer": 4903,
      "akers": 4904,
      "su": 4905,
      "Ġtreatments": 4906,
      "Ġidentity": 4907,
      "Ġwet": 4908,
      "ĠHol": 4909,
      "Ġconsequences": 4910,
      "Ġfrequency": 4911,
      "Ġlov": 4912,
      "Ġexistence": 4913,
      "Ġbrief": 4914,
      "Ġeast": 4915,
      "Ġkinds": 4916,
      "astern": 4917,
      "Ġprimarily": 4918,
      "istan": 4919,
      "Ġinput": 4920,
      "aker": 4921,
      "Ġ35": 4922,
      "Ġtoxic": 4923,
      "Ġdoll": 4924,
      "osite": 4925,
      "Ġwife": 4926,
      "ĠInstead": 4927,
      "ĠSuch": 4928,
      "ĠUp": 4929,
      "Ġcenturies": 4930,
      "Ġstraight": 4931,
      "ague": 4932,
      "Ġtasks": 4933,
      "Ġlargely": 4934,
      "ishes": 4935,
      "ĠArab": 4936,
      "Ġelectrical": 4937,
      "ĠNews": 4938,
      "Ġcorresp": 4939,
      "umn": 4940,
      "Ġclick": 4941,
      "Ġsector": 4942,
      "Ġlic": 4943,
      "Ġflex": 4944,
      "Ġcombined": 4945,
      "ĠClass": 4946,
      "Ġkeeping": 4947,
      "Ġformation": 4948,
      "ĠAcad": 4949,
      "75": 4950,
      "ĠDirect": 4951,
      "ormal": 4952,
      "eline": 4953,
      "Ġspend": 4954,
      "Ġheight": 4955,
      "Ġphenomen": 4956,
      "ĠWell": 4957,
      "Ġ2004": 4958,
      "ĠIr": 4959,
      "Ġwaters": 4960,
      "acific": 4961,
      "CC": 4962,
      "Ġadvance": 4963,
      "ĠWhere": 4964,
      "Ġoccurred": 4965,
      "ĠMedical": 4966,
      "ixt": 4967,
      "ĠLearning": 4968,
      "ĠEnergy": 4969,
      "lig": 4970,
      "Ġspecifically": 4971,
      "espite": 4972,
      "ears": 4973,
      "Ġpul": 4974,
      "Ġresponsibility": 4975,
      "Ġfelt": 4976,
      "Ġperman": 4977,
      "Ġmuscles": 4978,
      "Ġsubjects": 4979,
      "Ġfoss": 4980,
      "ĠElect": 4981,
      "ĠLife": 4982,
      "onomic": 4983,
      "Ġstone": 4984,
      "umin": 4985,
      "Ġleader": 4986,
      "Ġvital": 4987,
      "Ġgar": 4988,
      "Ġtechnical": 4989,
      "Ġrecy": 4990,
      "Ġliquid": 4991,
      "itors": 4992,
      "Ġshar": 4993,
      "Ġextent": 4994,
      "pat": 4995,
      "ĠFranc": 4996,
      "otic": 4997,
      "des": 4998,
      "ĠSupp": 4999,
      "ĠJud": 5000,
      "Ġbird": 5001,
      "Ġgrand": 5002,
      "33": 5003,
      "Ġraised": 5004,
      "ĠRef": 5005,
      "rations": 5006,
      "Ġemergency": 5007,
      "Ġcomment": 5008,
      "ĠBefore": 5009,
      "ĠArmy": 5010,
      "olute": 5011,
      "acters": 5012,
      "Ġattacks": 5013,
      "Ġdigest": 5014,
      "Ġnutrients": 5015,
      "ĠOp": 5016,
      "Ġblog": 5017,
      "Ġfib": 5018,
      "Ġoperating": 5019,
      "iat": 5020,
      "ses": 5021,
      "78": 5022,
      "Ġindicate": 5023,
      "Ġdespite": 5024,
      "Ġdatab": 5025,
      "ossible": 5026,
      "ĠSer": 5027,
      "Ġshowing": 5028,
      "Ġfaster": 5029,
      "Ġcollected": 5030,
      "Ġsettle": 5031,
      "Ġnations": 5032,
      "ĠThose": 5033,
      "rapy": 5034,
      "ĠData": 5035,
      "Ġadvice": 5036,
      "Ġsalt": 5037,
      "Ġtro": 5038,
      "Ġroll": 5039,
      "Ġvast": 5040,
      "verty": 5041,
      "ĠMil": 5042,
      "ĠÃ": 5043,
      "alle": 5044,
      "roke": 5045,
      "Ġbright": 5046,
      "ĠCommission": 5047,
      "Ġquar": 5048,
      "oper": 5049,
      "Ġpoverty": 5050,
      "iated": 5051,
      "Ġtopics": 5052,
      "olars": 5053,
      "ĠSpace": 5054,
      "inent": 5055,
      "ĠBay": 5056,
      "Ġbill": 5057,
      "Ġvoice": 5058,
      "Ġvehicle": 5059,
      "arrow": 5060,
      "Ġsurrounding": 5061,
      "going": 5062,
      "ags": 5063,
      "Ġkn": 5064,
      "ĠOut": 5065,
      "bi": 5066,
      "west": 5067,
      "ĠBible": 5068,
      "inger": 5069,
      "Ġimpacts": 5070,
      "ipped": 5071,
      "ĠDise": 5072,
      "Ġexcellent": 5073,
      "Ġresist": 5074,
      "Ġ2020": 5075,
      "ĠRobert": 5076,
      "tes": 5077,
      "osen": 5078,
      "ĠMass": 5079,
      "ĠDisc": 5080,
      "ĠAtl": 5081,
      "nel": 5082,
      "ĠBur": 5083,
      "Ġgoods": 5084,
      "Ġaren": 5085,
      "Ġplayed": 5086,
      "Ġperspective": 5087,
      "Ġflowers": 5088,
      "Ġcrucial": 5089,
      "ĠYet": 5090,
      "Ġmere": 5091,
      "Ġclim": 5092,
      "AD": 5093,
      "Ġimmig": 5094,
      "rier": 5095,
      "Ġaffects": 5096,
      "Ġgreatest": 5097,
      "rian": 5098,
      "'ve": 5099,
      "Ġcoord": 5100,
      "Ġfamiliar": 5101,
      "Ġparticles": 5102,
      "itness": 5103,
      "othing": 5104,
      "Ġexplains": 5105,
      "OT": 5106,
      "Ġletters": 5107,
      "ĠJose": 5108,
      "iced": 5109,
      "Ġonto": 5110,
      "eria": 5111,
      "Ġsounds": 5112,
      "mp": 5113,
      "Ġagricultural": 5114,
      "Ġecosystem": 5115,
      "ĠLatin": 5116,
      "Ġ1990": 5117,
      "ĠBudd": 5118,
      "Ġthoughts": 5119,
      "oo": 5120,
      "ĠBet": 5121,
      "Ġmoist": 5122,
      "Ġhelpful": 5123,
      "Ġcert": 5124,
      "vis": 5125,
      "rastructure": 5126,
      "gra": 5127,
      "field": 5128,
      "Ġperiods": 5129,
      "oughly": 5130,
      "Ġju": 5131,
      "Ġrefers": 5132,
      "ĠQue": 5133,
      "Ġpolice": 5134,
      "Ġfif": 5135,
      "Ġ2003": 5136,
      "ĠTechnology": 5137,
      "Ġdetailed": 5138,
      "Ġphone": 5139,
      "Ġotherwise": 5140,
      "Ġsche": 5141,
      "Ġoral": 5142,
      "tion": 5143,
      "Ġgirls": 5144,
      "Ġnerv": 5145,
      "Ġcharacters": 5146,
      "omin": 5147,
      "ework": 5148,
      "ado": 5149,
      "ĠHistor": 5150,
      "Ġrail": 5151,
      "Ġfacilities": 5152,
      "enses": 5153,
      "ĠMedicine": 5154,
      "ancing": 5155,
      "Ġhappened": 5156,
      "Ġabuse": 5157,
      "Ġsuggested": 5158,
      "Ġsurpris": 5159,
      "ĠSat": 5160,
      "Ġincreasingly": 5161,
      "unk": 5162,
      "ĠKore": 5163,
      "Ġsatis": 5164,
      "ĠBook": 5165,
      "Ġinterests": 5166,
      "ville": 5167,
      "Ġpaint": 5168,
      "90": 5169,
      "ĠCam": 5170,
      "Ġlose": 5171,
      "ĠLake": 5172,
      "rich": 5173,
      "Ġexternal": 5174,
      "Ġcrops": 5175,
      "Ġhaz": 5176,
      "Ġcrisis": 5177,
      "Ġtypical": 5178,
      "Ġtips": 5179,
      "Ġmotion": 5180,
      "Ġtested": 5181,
      "Ġaccurate": 5182,
      "ĠFam": 5183,
      "band": 5184,
      "Ġexplan": 5185,
      "Ġmonitoring": 5186,
      "Ġfloor": 5187,
      "Ġmeasured": 5188,
      "Ġthin": 5189,
      "Ġplaying": 5190,
      "Ġbow": 5191,
      "igenous": 5192,
      "Ġdouble": 5193,
      "Ġsend": 5194,
      "ĠSou": 5195,
      "Ġexplained": 5196,
      "Ġpersons": 5197,
      "Ġapparent": 5198,
      "Ġliver": 5199,
      "ensus": 5200,
      "Ġsnow": 5201,
      "Ġhyper": 5202,
      "ails": 5203,
      "Ġrural": 5204,
      "Ġdisapp": 5205,
      "ĠSmith": 5206,
      "Ġdiam": 5207,
      "gl": 5208,
      "Ġsin": 5209,
      "Ġintroduction": 5210,
      "ificial": 5211,
      "stood": 5212,
      "ĠDespite": 5213,
      "Ġpil": 5214,
      "Ġdivided": 5215,
      "ĠKnow": 5216,
      "Ġdomin": 5217,
      "36": 5218,
      "Ġwestern": 5219,
      "Ġslightly": 5220,
      "Ġofficials": 5221,
      "Ġtrial": 5222,
      "Ġfundamental": 5223,
      "Ġneighbor": 5224,
      "Ġpray": 5225,
      "Ġgovernments": 5226,
      "ĠFlor": 5227,
      "Ġdepends": 5228,
      "Ġmaximum": 5229,
      "Ġpotentially": 5230,
      "Ġcognitive": 5231,
      "Ġstudied": 5232,
      "Ġgrown": 5233,
      "Ã¡": 5234,
      "Ġharvest": 5235,
      "Ġsmart": 5236,
      "Ġsen": 5237,
      "Ġlooked": 5238,
      "Ġbiological": 5239,
      "Ġwel": 5240,
      "Ġcomponent": 5241,
      "oviet": 5242,
      "Ġfruits": 5243,
      "Ġcontrolled": 5244,
      "Ġinterview": 5245,
      "ĠInformation": 5246,
      "Ġflat": 5247,
      "Ġsyn": 5248,
      "ĠNor": 5249,
      "ĠCommon": 5250,
      "ĠCharles": 5251,
      "Ġinvestment": 5252,
      "Ġprison": 5253,
      "ĠLand": 5254,
      "utive": 5255,
      "Ġsubsequ": 5256,
      "Ġtried": 5257,
      "Ġsubstant": 5258,
      "roc": 5259,
      "Ġcurriculum": 5260,
      "eters": 5261,
      "Ġhundreds": 5262,
      "Ġwalls": 5263,
      "Ġmetab": 5264,
      "Ġfluid": 5265,
      "Ġhttps": 5266,
      "Ġconcerned": 5267,
      "ael": 5268,
      "Ġlinks": 5269,
      "EL": 5270,
      "Ġlik": 5271,
      "anges": 5272,
      "gment": 5273,
      "Ġvent": 5274,
      "hi": 5275,
      "Ġsuffering": 5276,
      "Ġprices": 5277,
      "ĠHenry": 5278,
      "body": 5279,
      "atever": 5280,
      "Ġappeared": 5281,
      "gal": 5282,
      "AP": 5283,
      "ĠRussian": 5284,
      "ĠStand": 5285,
      "Ġweap": 5286,
      "Ġkil": 5287,
      "osa": 5288,
      "Ġinstruction": 5289,
      "Ġfle": 5290,
      "ras": 5291,
      "Ġtrain": 5292,
      "Ġfeelings": 5293,
      "athy": 5294,
      "win": 5295,
      "ĠFoundation": 5296,
      "ĠAN": 5297,
      "RI": 5298,
      "ĠSte": 5299,
      "Ġconvent": 5300,
      "ĠStudies": 5301,
      "Ġstars": 5302,
      "Ġresidents": 5303,
      "which": 5304,
      "ship": 5305,
      "van": 5306,
      "aks": 5307,
      "âĢľ": 5308,
      "Ġinstrument": 5309,
      "Ġfollows": 5310,
      "Ġhorse": 5311,
      "Ġreturned": 5312,
      "Ġdut": 5313,
      "Ġnit": 5314,
      "Ġchief": 5315,
      "Ġgun": 5316,
      "ĠMont": 5317,
      "Ġdeliver": 5318,
      "ĠRussia": 5319,
      "ĠCarol": 5320,
      "ĠBC": 5321,
      "Ġrecognized": 5322,
      "ĠCatholic": 5323,
      "ĠMem": 5324,
      "down": 5325,
      "what": 5326,
      "li": 5327,
      "Ġpregnancy": 5328,
      "BC": 5329,
      "Ġspl": 5330,
      "itage": 5331,
      "Ġinternet": 5332,
      "If": 5333,
      "point": 5334,
      "ĠSea": 5335,
      "Ġ2001": 5336,
      "Ġroots": 5337,
      "ĠSl": 5338,
      "Ġclaims": 5339,
      "Ġrequest": 5340,
      "ĠSum": 5341,
      "Ġproteins": 5342,
      "ĠHam": 5343,
      "resents": 5344,
      "Ġrapidly": 5345,
      "Ġprotected": 5346,
      "100": 5347,
      "Ġcontinuous": 5348,
      "Ġspiritual": 5349,
      "ĠPacific": 5350,
      "Ġargument": 5351,
      "Ġfirm": 5352,
      "inding": 5353,
      "ĠExam": 5354,
      "Ġdirector": 5355,
      "Ġobtained": 5356,
      "38": 5357,
      "Ġdeaths": 5358,
      "Ġaccompl": 5359,
      "ĠTHE": 5360,
      "Ġjustice": 5361,
      "Ġstock": 5362,
      "nam": 5363,
      "ulin": 5364,
      "Ġpaid": 5365,
      "lar": 5366,
      "Ġportion": 5367,
      "osc": 5368,
      "Ġconsists": 5369,
      "Ġconscious": 5370,
      "Ġdomestic": 5371,
      "Ġclosely": 5372,
      "Ġoutcomes": 5373,
      "Ġvalid": 5374,
      "chers": 5375,
      "ĠGoogle": 5376,
      "Ġdepth": 5377,
      "ĠProfessor": 5378,
      "burg": 5379,
      "ĠExpl": 5380,
      "Ġchann": 5381,
      "Ġhabitat": 5382,
      "ĠGood": 5383,
      "Ġleaving": 5384,
      "ĠMiddle": 5385,
      "Ġneut": 5386,
      "Ġappearance": 5387,
      "Ġknew": 5388,
      "Ġvaluable": 5389,
      "ĠNav": 5390,
      "Ġmoral": 5391,
      "celer": 5392,
      "Ġdriving": 5393,
      "ĠCop": 5394,
      "Ġprinciple": 5395,
      "omy": 5396,
      "Ġreform": 5397,
      "?âĢĿ": 5398,
      "Ġelev": 5399,
      "Ġmedications": 5400,
      "uke": 5401,
      "Ġwear": 5402,
      "Ġbusinesses": 5403,
      "Ġstem": 5404,
      "Ġemployees": 5405,
      "Ġcircumst": 5406,
      "right": 5407,
      "Ġimmun": 5408,
      "Ġvisible": 5409,
      "Ġexpensive": 5410,
      "Ġlatest": 5411,
      "ĠCD": 5412,
      "Ġstated": 5413,
      "Ġcontem": 5414,
      "Ġpu": 5415,
      "Ġsides": 5416,
      "Ġregularly": 5417,
      "lers": 5418,
      "asure": 5419,
      "ĠSoviet": 5420,
      "icks": 5421,
      "Ġstret": 5422,
      "Ġrepresents": 5423,
      "cript": 5424,
      "zy": 5425,
      "ellect": 5426,
      "Ġpoet": 5427,
      "Ġapproaches": 5428,
      "Ġviews": 5429,
      "Ġtitle": 5430,
      "Ġpig": 5431,
      "Ġpurs": 5432,
      "Ġsoldiers": 5433,
      "Ġnaturally": 5434,
      "Ġrein": 5435,
      "racy": 5436,
      "ye": 5437,
      "Ġsan": 5438,
      "ĠSaf": 5439,
      "Ġintelligence": 5440,
      "fall": 5441,
      "Ġminimum": 5442,
      "ĠKeep": 5443,
      "Ġdiscussed": 5444,
      "roid": 5445,
      "Ġadvoc": 5446,
      "Ġdecrease": 5447,
      "ĠPsych": 5448,
      "Ġkm": 5449,
      "ht": 5450,
      "âĢĻ.": 5451,
      "tenance": 5452,
      "ĠDel": 5453,
      "abil": 5454,
      "Ġsick": 5455,
      "bing": 5456,
      "Ġband": 5457,
      "Ġcontaining": 5458,
      "col": 5459,
      "ĠTem": 5460,
      "Ġconcentration": 5461,
      "Ġages": 5462,
      "Ġcouple": 5463,
      "ĠOnly": 5464,
      "Ġsecure": 5465,
      "ĠWild": 5466,
      "Ġinches": 5467,
      "Ġshel": 5468,
      "].": 5469,
      "Ġrecognize": 5470,
      "Ġalt": 5471,
      "Ġdial": 5472,
      "Ġfunding": 5473,
      "Ġnarr": 5474,
      "Ġmovements": 5475,
      "ĠInf": 5476,
      "Ġmedium": 5477,
      "Ġmillions": 5478,
      "Ġ188": 5479,
      "ĠEnvironmental": 5480,
      "Ġdistingu": 5481,
      "Ġinfrastructure": 5482,
      "Ġlessons": 5483,
      "Ġhunt": 5484,
      "ĠEngine": 5485,
      "Ġcardi": 5486,
      "stronom": 5487,
      "Ġwire": 5488,
      "Ġinflammation": 5489,
      "Ġsimpl": 5490,
      "Ġ2002": 5491,
      "ooth": 5492,
      "Ġpump": 5493,
      "Ġsed": 5494,
      "iled": 5495,
      "ĠEmp": 5496,
      "Ġmobile": 5497,
      "Ġleadership": 5498,
      "Ġinfected": 5499,
      "Ġagriculture": 5500,
      "Ġextract": 5501,
      "ffee": 5502,
      "48": 5503,
      "Ġdiversity": 5504,
      "Ġod": 5505,
      "ĠFigure": 5506,
      "Ġrub": 5507,
      "Ġadding": 5508,
      "Ġcolors": 5509,
      "Ġboost": 5510,
      "rolog": 5511,
      "Ġprocedures": 5512,
      "ĠFinally": 5513,
      "ario": 5514,
      "Ġsuffer": 5515,
      "Ġdiscovery": 5516,
      "Ġtalking": 5517,
      "Ġingred": 5518,
      "RO": 5519,
      "Ġassemb": 5520,
      "ĠWind": 5521,
      "ĠVirginia": 5522,
      "free": 5523,
      "Ġfrag": 5524,
      "Ġraise": 5525,
      "Ġsyndrome": 5526,
      "active": 5527,
      "ĠCompany": 5528,
      "ĠFe": 5529,
      "ĠAlex": 5530,
      "ĠFederal": 5531,
      "Ġsatell": 5532,
      "ĠWil": 5533,
      "road": 5534,
      "ĠLouis": 5535,
      "ĠHave": 5536,
      "Ġ45": 5537,
      "Ġexchange": 5538,
      "Ġenhance": 5539,
      "Ġrand": 5540,
      "ĠBat": 5541,
      "ĠProv": 5542,
      "name": 5543,
      "Äģ": 5544,
      "Ġentirely": 5545,
      "Ġbehaviour": 5546,
      "ocratic": 5547,
      "Ġcapable": 5548,
      "Ġprevention": 5549,
      "Ġcorpor": 5550,
      "ĠAI": 5551,
      "Ġcorrespond": 5552,
      "Ġrecovery": 5553,
      "stream": 5554,
      "Ġmyth": 5555,
      "anes": 5556,
      "Ġallerg": 5557,
      "ĠThough": 5558,
      "Ġsubstance": 5559,
      "bert": 5560,
      "Ġhealthcare": 5561,
      "agers": 5562,
      "Ġapart": 5563,
      "Ġimpossible": 5564,
      "ĠKen": 5565,
      "ota": 5566,
      "Ġdocuments": 5567,
      "Ġselected": 5568,
      "yright": 5569,
      "Ġabsolute": 5570,
      "ĠWho": 5571,
      "Ġnurs": 5572,
      "Ġtherm": 5573,
      "Ġera": 5574,
      "Ġunlike": 5575,
      "inet": 5576,
      "Ġrandom": 5577,
      "Ġvehicles": 5578,
      "Ġlifest": 5579,
      "Ġadequ": 5580,
      "cling": 5581,
      "Ġstages": 5582,
      "Ġopinion": 5583,
      "Ġtrad": 5584,
      "ĠAtt": 5585,
      "dden": 5586,
      "indu": 5587,
      "Ġchapter": 5588,
      "teries": 5589,
      "Ġcreative": 5590,
      "As": 5591,
      "ĠRights": 5592,
      "Ġsets": 5593,
      "Ġclosed": 5594,
      "alse": 5595,
      "Ġvillage": 5596,
      "à¤": 5597,
      "Ġdental": 5598,
      "Ġprecise": 5599,
      "oral": 5600,
      "MS": 5601,
      "Ġpure": 5602,
      "ari": 5603,
      "ĠFollow": 5604,
      "liam": 5605,
      "ascular": 5606,
      "Ġfertil": 5607,
      "ĠDiv": 5608,
      "state": 5609,
      "Ġsensitive": 5610,
      "Ġparties": 5611,
      "ny": 5612,
      "rants": 5613,
      "Ġprem": 5614,
      "ĠAp": 5615,
      "Ġmassive": 5616,
      "olf": 5617,
      "rot": 5618,
      "ola": 5619,
      "Ġble": 5620,
      "Ġ2019": 5621,
      "Ġincl": 5622,
      "ston": 5623,
      "TS": 5624,
      "Ġproducing": 5625,
      "Ġcalls": 5626,
      "ĠControl": 5627,
      "Ġcomputers": 5628,
      "ĠBre": 5629,
      "There": 5630,
      "Ġtraffic": 5631,
      "ION": 5632,
      "34": 5633,
      "Ġdream": 5634,
      "CO": 5635,
      "Ġoriginally": 5636,
      "Ġspeaking": 5637,
      "with": 5638,
      "ga": 5639,
      "Ġphr": 5640,
      "ĠCare": 5641,
      "ĠWhe": 5642,
      "Ġfacilit": 5643,
      "Ġopened": 5644,
      "ĠId": 5645,
      "Ġcars": 5646,
      "ibilities": 5647,
      "Ġunderstood": 5648,
      "Ġconsid": 5649,
      "Ġaf": 5650,
      "esity": 5651,
      "39": 5652,
      "ĠNature": 5653,
      "Ġrecip": 5654,
      "US": 5655,
      "Ġbrown": 5656,
      "Ġnormally": 5657,
      "Ġprepare": 5658,
      "Ġtouch": 5659,
      "Ġdescribes": 5660,
      "Ġpossess": 5661,
      "Ġmanufacturing": 5662,
      "mas": 5663,
      "Ġgall": 5664,
      "osal": 5665,
      "Ġhouses": 5666,
      "ĠLeg": 5667,
      "being": 5668,
      "ĠTake": 5669,
      "Ġ31": 5670,
      "asive": 5671,
      "Ġadopted": 5672,
      "Ġstick": 5673,
      "long": 5674,
      "ĠPers": 5675,
      "idden": 5676,
      "Ġpossibly": 5677,
      "Ġsudden": 5678,
      "Ġworse": 5679,
      "ĠTer": 5680,
      "Ġrevealed": 5681,
      "icit": 5682,
      "Ġwave": 5683,
      "Ġreaders": 5684,
      "Ġfigures": 5685,
      "Ġformal": 5686,
      "ĠOx": 5687,
      "la": 5688,
      "ĠJoseph": 5689,
      "Ġtun": 5690,
      "Ġaccepted": 5691,
      "agues": 5692,
      "olester": 5693,
      "Ġsecondary": 5694,
      "Ġdistrict": 5695,
      "Ġmarriage": 5696,
      "Ġtal": 5697,
      "Ġnarrow": 5698,
      "ĠLong": 5699,
      "Ġaw": 5700,
      "mic": 5701,
      "Ġimproving": 5702,
      "omach": 5703,
      "Ġplays": 5704,
      "ĠMo": 5705,
      "Ġintake": 5706,
      "Ġflight": 5707,
      "Ġpref": 5708,
      "Ġpretty": 5709,
      "Ġdecline": 5710,
      "ĠVis": 5711,
      "olve": 5712,
      "Ġroutine": 5713,
      "Ġmedication": 5714,
      "Ġfell": 5715,
      "Ġinterf": 5716,
      "Ġformat": 5717,
      "ĠPC": 5718,
      "Ġcandid": 5719,
      "Ġnetworks": 5720,
      "Ġamb": 5721,
      "ĠPeter": 5722,
      "Ġrecon": 5723,
      "Ġsuc": 5724,
      "Ġchain": 5725,
      "ĠFlorida": 5726,
      "ĠPower": 5727,
      "Ġdiverse": 5728,
      "ING": 5729,
      "Ġpossibility": 5730,
      "Ġbones": 5731,
      "ĠLibrary": 5732,
      "Ġgather": 5733,
      "Ġwarming": 5734,
      "Ġuniverse": 5735,
      "ĠPhot": 5736,
      "Ġpictures": 5737,
      "Ġrestrict": 5738,
      "othe": 5739,
      "liament": 5740,
      "ĠPlease": 5741,
      "pet": 5742,
      "abits": 5743,
      "Ġbudget": 5744,
      "Ġminim": 5745,
      "Ġlandscape": 5746,
      "Ġlatter": 5747,
      "ĠGroup": 5748,
      "Ġwildlife": 5749,
      "Ġworldwide": 5750,
      "Ġsurvival": 5751,
      "ĠOffice": 5752,
      "Ġmountain": 5753,
      "Ġmoon": 5754,
      "Ġsuitable": 5755,
      "Ġaircraft": 5756,
      "Ġapprec": 5757,
      "ĠConstitution": 5758,
      "Ġachieved": 5759,
      "Ġlabel": 5760,
      "Ġfill": 5761,
      "Ġarms": 5762,
      "umber": 5763,
      "alian": 5764,
      "Ġharmful": 5765,
      "Ġexperiments": 5766,
      "abric": 5767,
      "Ġdu": 5768,
      "Ġengage": 5769,
      "Ġinject": 5770,
      "Ġselection": 5771,
      "ĠGold": 5772,
      "Ġtransition": 5773,
      "Ġregional": 5774,
      "Ġsteel": 5775,
      "ĠExper": 5776,
      "Ġguidelines": 5777,
      "olesterol": 5778,
      "Ġ185": 5779,
      "ĠReview": 5780,
      "37": 5781,
      "Ġtoler": 5782,
      "Ġstruggle": 5783,
      "Ġacts": 5784,
      "erals": 5785,
      "asp": 5786,
      "Ġcomprehensive": 5787,
      "ĠPub": 5788,
      "Ġmur": 5789,
      "ctic": 5790,
      "ĠWrit": 5791,
      "Ġrepeated": 5792,
      "Ġafford": 5793,
      "Ġscholars": 5794,
      "ĠCommit": 5795,
      "Ġdoctors": 5796,
      "Ġancest": 5797,
      "anged": 5798,
      "Ġhappy": 5799,
      "Ġcatch": 5800,
      "obe": 5801,
      "500": 5802,
      "Ġsports": 5803,
      "Ġinjuries": 5804,
      "Ġtells": 5805,
      "ĠFrank": 5806,
      "Ġlibrary": 5807,
      "pass": 5808,
      "Ġlisted": 5809,
      "Ġgenerate": 5810,
      "orter": 5811,
      "Ġstarts": 5812,
      "Ġtow": 5813,
      "Ġsurvive": 5814,
      "Ġmamm": 5815,
      "Ġunless": 5816,
      "mary": 5817,
      "orith": 5818,
      "Ġjourney": 5819,
      "war": 5820,
      "Ġadministration": 5821,
      "Ġindeed": 5822,
      "ona": 5823,
      "hips": 5824,
      "Ġsell": 5825,
      "ĠEarly": 5826,
      "ĠManagement": 5827,
      "flow": 5828,
      "oted": 5829,
      "Ġbeneficial": 5830,
      "ĠDesign": 5831,
      "ĠRad": 5832,
      "Ġimper": 5833,
      "aser": 5834,
      "Ġdoor": 5835,
      "Ġfiles": 5836,
      "ĠAdd": 5837,
      "ĠCanadian": 5838,
      "Ġsupplement": 5839,
      "Ġprofessionals": 5840,
      "uilding": 5841,
      "Ġcloud": 5842,
      "Ġ>": 5843,
      "Ġfilled": 5844,
      "vironments": 5845,
      "Ġagencies": 5846,
      "Ġantibiot": 5847,
      "Ġsweet": 5848,
      "ypes": 5849,
      "Ġbattery": 5850,
      "ĠSk": 5851,
      "ĠNote": 5852,
      "Ġremaining": 5853,
      "Ġpapers": 5854,
      "ĠDan": 5855,
      "exp": 5856,
      "prise": 5857,
      "Ġmit": 5858,
      "Ġaudience": 5859,
      "Ġaccounts": 5860,
      "Ġtiny": 5861,
      "44": 5862,
      "ĠCa": 5863,
      "ĠLabor": 5864,
      "Ġtwice": 5865,
      "Ġassistance": 5866,
      "Ġtail": 5867,
      "Ġchoices": 5868,
      "Ġseeing": 5869,
      "ĠGlobal": 5870,
      "Ġabund": 5871,
      "Ġintellect": 5872,
      "ushing": 5873,
      "Ġchildhood": 5874,
      "Ġlands": 5875,
      "Ġcourses": 5876,
      "ĠAnn": 5877,
      "born": 5878,
      "ĠEss": 5879,
      "isp": 5880,
      "Ġagreement": 5881,
      "Ġcultiv": 5882,
      "Ġmuseum": 5883,
      "Ġtroops": 5884,
      "aph": 5885,
      "Ġforests": 5886,
      "imer": 5887,
      "Ġaqu": 5888,
      "ĠSometimes": 5889,
      "Ġreject": 5890,
      "ca": 5891,
      "Ġplate": 5892,
      "Ġcircumstances": 5893,
      "CS": 5894,
      "Ġwants": 5895,
      "65": 5896,
      "DF": 5897,
      "ĠIll": 5898,
      "Ġdust": 5899,
      "Ġfoundation": 5900,
      "Ġleaf": 5901,
      "Ġdiscipl": 5902,
      "anguage": 5903,
      "ato": 5904,
      "ĠFact": 5905,
      "Ġcreates": 5906,
      "ĠLast": 5907,
      "inations": 5908,
      "Ġdepos": 5909,
      "Ġsolve": 5910,
      "Ġcritic": 5911,
      "ĠStreet": 5912,
      "ashion": 5913,
      "Ġextended": 5914,
      "icians": 5915,
      "VID": 5916,
      "Ġfailed": 5917,
      "Ġmaintenance": 5918,
      "ĠColumb": 5919,
      "ĠIN": 5920,
      "Ġ1980": 5921,
      "Ġdecade": 5922,
      "Ġanswers": 5923,
      "ansion": 5924,
      "ĠDet": 5925,
      "Ġsurf": 5926,
      "Ġperce": 5927,
      "rem": 5928,
      "Ġopening": 5929,
      "Ġstored": 5930,
      "ĠAmong": 5931,
      "Ġedge": 5932,
      "Ġoutl": 5933,
      "Ġbroken": 5934,
      "Ġstudying": 5935,
      "Ġslowly": 5936,
      "ĠVict": 5937,
      "Ġexpressed": 5938,
      "ÃŃ": 5939,
      "orrow": 5940,
      "Ġnan": 5941,
      "ester": 5942,
      "ĠDiff": 5943,
      "Ġobtain": 5944,
      "Ġdecide": 5945,
      "icide": 5946,
      "ifies": 5947,
      "reed": 5948,
      "ums": 5949,
      "ĠTor": 5950,
      "ogue": 5951,
      "Ġdoubt": 5952,
      "anda": 5953,
      "Ġremote": 5954,
      "Ġtruly": 5955,
      "normal": 5956,
      ".âĢĻ": 5957,
      "Ġpull": 5958,
      "Ġlots": 5959,
      "Ġwaves": 5960,
      "Ġconsistent": 5961,
      "ocracy": 5962,
      "alysis": 5963,
      "Ġelectronic": 5964,
      "ka": 5965,
      "ropical": 5966,
      "ĠHome": 5967,
      "ĠHaw": 5968,
      "Ġacceler": 5969,
      "rors": 5970,
      "inder": 5971,
      "Ġkit": 5972,
      "Ġintervention": 5973,
      "Ġskill": 5974,
      "ĠParis": 5975,
      "ĠExt": 5976,
      "lements": 5977,
      "Ġequival": 5978,
      "ĠMad": 5979,
      "ĠNatural": 5980,
      "Ġgenerated": 5981,
      "Ġcorn": 5982,
      "Ġunknown": 5983,
      "throp": 5984,
      "ĠExp": 5985,
      "Ġvolunte": 5986,
      "iology": 5987,
      "Ġmarine": 5988,
      "Ġsuccessfully": 5989,
      "Ġparam": 5990,
      "Ġswitch": 5991,
      "Ġproduces": 5992,
      "Ġlocations": 5993,
      "Ġtraum": 5994,
      "Ġgreatly": 5995,
      "32": 5996,
      "Ġlaun": 5997,
      "Ġ500": 5998,
      "Ġauthorities": 5999,
      "Ġ1999": 6000,
      "Ġtransmission": 6001,
      "ĠAustralian": 6002,
      "arant": 6003,
      "hist": 6004,
      "Ġstomach": 6005,
      "ĠKh": 6006,
      "gent": 6007,
      "hma": 6008,
      "ada": 6009,
      "Ġhus": 6010,
      "Ġframework": 6011,
      "organ": 6012,
      "Ġemotions": 6013,
      "Ġwindow": 6014,
      "Ġethnic": 6015,
      "BN": 6016,
      "Ġpermanent": 6017,
      "Ġenvironments": 6018,
      "Ġnewsp": 6019,
      "Ġfossil": 6020,
      "Ġ1970": 6021,
      "Ġchart": 6022,
      "Ġopposite": 6023,
      "ala": 6024,
      "Ġmac": 6025,
      "Ġdifficulty": 6026,
      "Ġconsumers": 6027,
      "Ġthor": 6028,
      "Ġwriter": 6029,
      "ĠNations": 6030,
      "âĢĻ,": 6031,
      "Ġmanaged": 6032,
      "oned": 6033,
      "inction": 6034,
      "Ġorganized": 6035,
      "Ġshell": 6036,
      "ĠOh": 6037,
      "Ġderived": 6038,
      "Ġsod": 6039,
      "Ġultimately": 6040,
      "Ġfly": 6041,
      "zen": 6042,
      "ava": 6043,
      "ĠLab": 6044,
      "Ġwitness": 6045,
      "Ġbear": 6046,
      "Ġinstitution": 6047,
      "Ġphilosophy": 6048,
      "eper": 6049,
      "ĠReport": 6050,
      "rid": 6051,
      "76": 6052,
      "ĠUSA": 6053,
      "Ġenable": 6054,
      "Ġhero": 6055,
      "Ġcarefully": 6056,
      "Ġaer": 6057,
      "Ġflav": 6058,
      "Ġuns": 6059,
      "....": 6060,
      "Americ": 6061,
      "ĠStat": 6062,
      "Ġmarked": 6063,
      "tage": 6064,
      "Ġdaughter": 6065,
      "Ġsky": 6066,
      "ĠCult": 6067,
      "ua": 6068,
      "Ġuniversity": 6069,
      "Ġreplaced": 6070,
      "ki": 6071,
      "Ġcoffee": 6072,
      "inn": 6073,
      "Ġoptim": 6074,
      "osph": 6075,
      "ĠRome": 6076,
      "Ġwish": 6077,
      "ects": 6078,
      "Ġfixed": 6079,
      "Ġunp": 6080,
      "ĠHall": 6081,
      "ait": 6082,
      "Ġgrav": 6083,
      "Ġdatabase": 6084,
      "Ġsight": 6085,
      "You": 6086,
      "Ġcomposition": 6087,
      "Ġsentence": 6088,
      "Ġattend": 6089,
      "Ġcultures": 6090,
      "ĠSouthern": 6091,
      "iform": 6092,
      "Ġdedicated": 6093,
      "Ġcolour": 6094,
      "Ġ300": 6095,
      "ĠChic": 6096,
      "Ġdebate": 6097,
      "Ġacknow": 6098,
      "Ġreader": 6099,
      "Ġwalking": 6100,
      "Ġinsects": 6101,
      "Ġremark": 6102,
      "Ġyield": 6103,
      "Ġdesire": 6104,
      "99": 6105,
      "Ġconstitution": 6106,
      "Ġthousand": 6107,
      "ĠDisease": 6108,
      "kes": 6109,
      "rans": 6110,
      "Ġvessels": 6111,
      "Ġarrived": 6112,
      "ribed": 6113,
      "Ġimmediate": 6114,
      "Ġlifestyle": 6115,
      "itudes": 6116,
      "Ġcart": 6117,
      "Ġgal": 6118,
      "Ġalgorith": 6119,
      "Ġfasc": 6120,
      "Ġsignals": 6121,
      "Ġprincip": 6122,
      "Ġindicates": 6123,
      "Ġdin": 6124,
      "Ġrepresented": 6125,
      "wing": 6126,
      "Ġconventional": 6127,
      "Ġunable": 6128,
      "Ġindex": 6129,
      "Ġnine": 6130,
      "Ġbrand": 6131,
      "ĠMill": 6132,
      "Ġraw": 6133,
      "ĠMicro": 6134,
      "ĠFree": 6135,
      "Ġmarried": 6136,
      "Ġresponses": 6137,
      "ivery": 6138,
      "Ġdestroyed": 6139,
      "Ġmixed": 6140,
      "Ġwww": 6141,
      "stein": 6142,
      "Ġcopy": 6143,
      "Ġfiber": 6144,
      "lets": 6145,
      "ĠCat": 6146,
      "Ġgone": 6147,
      "ĠRichard": 6148,
      "ĠLearn": 6149,
      "ĠBank": 6150,
      "ĠOF": 6151,
      "using": 6152,
      "Ġbio": 6153,
      "Ġbiggest": 6154,
      "Ġlaboratory": 6155,
      "Ġpurchase": 6156,
      "ĠCamp": 6157,
      "Ġdiox": 6158,
      "Ġmechanism": 6159,
      "aria": 6160,
      "Ġregulations": 6161,
      "Ġyounger": 6162,
      "Ġnecessarily": 6163,
      "rine": 6164,
      "ĠTime": 6165,
      "Ġinteraction": 6166,
      "ĠRob": 6167,
      "oster": 6168,
      "hemical": 6169,
      "Ġsequence": 6170,
      "add": 6171,
      "Ġfewer": 6172,
      "ĠÎ": 6173,
      "Ġmolecules": 6174,
      "Ġcomparison": 6175,
      "Ġdensity": 6176,
      "Ġcutting": 6177,
      "Ġbreathing": 6178,
      "Ġmild": 6179,
      "Ġhandle": 6180,
      "Ġcalcium": 6181,
      "Ġchosen": 6182,
      "Ġax": 6183,
      "Ġfighting": 6184,
      "izer": 6185,
      "ĠFort": 6186,
      "Ġrespir": 6187,
      "Ġourselves": 6188,
      "inking": 6189,
      "Ġcholesterol": 6190,
      "luding": 6191,
      "ĠWood": 6192,
      "Ġcloser": 6193,
      "CT": 6194,
      "46": 6195,
      "Ġdescription": 6196,
      "Ġconcrete": 6197,
      "Ġsharing": 6198,
      "ĠCheck": 6199,
      "sis": 6200,
      "antly": 6201,
      "Ġsupporting": 6202,
      "struct": 6203,
      "Ġhabits": 6204,
      "spec": 6205,
      "Ġtea": 6206,
      "Ġshift": 6207,
      "Ġpreval": 6208,
      "usal": 6209,
      ".|": 6210,
      "ront": 6211,
      "Ġlimits": 6212,
      "ĠCommittee": 6213,
      "ĠUnf": 6214,
      "HO": 6215,
      "Ġreserv": 6216,
      "reland": 6217,
      "itan": 6218,
      "Ġcircuit": 6219,
      "Ġacids": 6220,
      "31": 6221,
      "Ġroof": 6222,
      "last": 6223,
      "Ġcommunicate": 6224,
      "ena": 6225,
      "Ġfounded": 6226,
      "igation": 6227,
      "rimination": 6228,
      "Ġratio": 6229,
      "Ġdent": 6230,
      "Ġalle": 6231,
      "acing": 6232,
      "orses": 6233,
      "irty": 6234,
      "ifications": 6235,
      "aped": 6236,
      "Ġhousing": 6237,
      "agon": 6238,
      "Ġmachines": 6239,
      "Ġsucceed": 6240,
      "elled": 6241,
      "Ġinner": 6242,
      "Ġaccum": 6243,
      "Ġsmoking": 6244,
      "Ġhighlight": 6245,
      "Ġtwenty": 6246,
      "IL": 6247,
      "Ġstanding": 6248,
      "zil": 6249,
      "ini": 6250,
      "ĠMoreover": 6251,
      "Ġcolleagues": 6252,
      "ĠSol": 6253,
      "Ġconclusion": 6254,
      "ĠStudy": 6255,
      "ĠForm": 6256,
      "Ġends": 6257,
      "itative": 6258,
      "Ġstands": 6259,
      "ĠAdminist": 6260,
      "stone": 6261,
      "ĠRevolution": 6262,
      "Ġunus": 6263,
      "Ġlisten": 6264,
      "erent": 6265,
      "ĠEth": 6266,
      "Ġagency": 6267,
      "ipping": 6268,
      "ĠPenn": 6269,
      "Ġamaz": 6270,
      "Ġfabric": 6271,
      "Ġoccasion": 6272,
      "umes": 6273,
      "rating": 6274,
      "eck": 6275,
      "Ġimplementation": 6276,
      "Ġjoin": 6277,
      "no": 6278,
      "hand": 6279,
      "47": 6280,
      "Ġvoc": 6281,
      "Ġneck": 6282,
      "Ġerror": 6283,
      "Ġ<": 6284,
      "49": 6285,
      "ĠItaly": 6286,
      "Ġpersist": 6287,
      "Ġfeeding": 6288,
      "irus": 6289,
      "Ġveter": 6290,
      "ĠIreland": 6291,
      "phone": 6292,
      "under": 6293,
      "Ġoverl": 6294,
      "ĠEnd": 6295,
      "gans": 6296,
      "then": 6297,
      "Ġgrew": 6298,
      "bour": 6299,
      "ĠFurthermore": 6300,
      "Ġexists": 6301,
      "zed": 6302,
      "Ġsupplies": 6303,
      "Ġ1960": 6304,
      "sey": 6305,
      "ache": 6306,
      "ĠDoes": 6307,
      "ĠMichael": 6308,
      "Ġshut": 6309,
      "Ġpup": 6310,
      "Ġteen": 6311,
      "ĠOcean": 6312,
      "cher": 6313,
      "ints": 6314,
      "Ġrelax": 6315,
      "Ġtank": 6316,
      "Ġnoise": 6317,
      "ĠAdditionally": 6318,
      "Ġregist": 6319,
      "inity": 6320,
      "Ġcrow": 6321,
      "Ġrid": 6322,
      "Ġtransportation": 6323,
      "Ġeld": 6324,
      "Ġaccident": 6325,
      "Ġtex": 6326,
      "Ġpron": 6327,
      "198": 6328,
      "tering": 6329,
      "EP": 6330,
      "ĠClimate": 6331,
      "Ġnerve": 6332,
      "Ġfalse": 6333,
      "ĠColor": 6334,
      "abul": 6335,
      "ĠIP": 6336,
      "Ġarchitecture": 6337,
      "ĠMag": 6338,
      "Ġwilling": 6339,
      "riers": 6340,
      "ĠClin": 6341,
      "Ġtaste": 6342,
      "Ġbehaviors": 6343,
      "Ġartificial": 6344,
      "Ġterritory": 6345,
      "Ġphotograph": 6346,
      "hop": 6347,
      "Ġ1998": 6348,
      "Ġelectron": 6349,
      "yles": 6350,
      "gu": 6351,
      "Ġdownload": 6352,
      "Ġimprovement": 6353,
      "ĠCarolina": 6354,
      "ĠNorthern": 6355,
      "Ġknows": 6356,
      "Ġturns": 6357,
      "Ġregul": 6358,
      "ĠCancer": 6359,
      "utch": 6360,
      "inate": 6361,
      "ĠAS": 6362,
      "Ġvulnerable": 6363,
      "Ġvote": 6364,
      "isters": 6365,
      "Ġpsychological": 6366,
      "Ġcrime": 6367,
      "Ġcustomers": 6368,
      "avery": 6369,
      "Ġevaluation": 6370,
      "Ġpolitics": 6371,
      "Ġunderlying": 6372,
      "Ġshop": 6373,
      "ĠNative": 6374,
      "Ġwhatever": 6375,
      "Ġprotocol": 6376,
      "UR": 6377,
      "Ġsubs": 6378,
      "Ġparalle": 6379,
      "ĠQuest": 6380,
      "ĠTimes": 6381,
      "Ġpowers": 6382,
      "ĠPract": 6383,
      "Ġparticipate": 6384,
      "Ġdrawing": 6385,
      "Ġemployment": 6386,
      "Ġrecognition": 6387,
      "rovers": 6388,
      "Ġdioxide": 6389,
      "Ġbeliefs": 6390,
      "heast": 6391,
      "Ġattached": 6392,
      "orous": 6393,
      "Ġsupports": 6394,
      "ĠScot": 6395,
      "Ġrising": 6396,
      "ĠSimilar": 6397,
      "Ġpercentage": 6398,
      "Ġtrained": 6399,
      "ĠValley": 6400,
      "kins": 6401,
      "Ġcamera": 6402,
      "Ġcontamin": 6403,
      "Ġgluc": 6404,
      "Ġresulted": 6405,
      "Ġment": 6406,
      "Ġbread": 6407,
      "Ġships": 6408,
      "Ġlaunch": 6409,
      "Ġlies": 6410,
      "ĠCap": 6411,
      "Ġmulti": 6412,
      "Ġwhereas": 6413,
      "Ġconfidence": 6414,
      "Ġeastern": 6415,
      "Ġrefuge": 6416,
      "teen": 6417,
      "Ġcos": 6418,
      "Ġjoined": 6419,
      "ĠRoyal": 6420,
      "ĠScott": 6421,
      "Ġcontained": 6422,
      "stract": 6423,
      "ĠUnfortunately": 6424,
      "Ġsupposed": 6425,
      "ĠCOVID": 6426,
      "level": 6427,
      "ĠLook": 6428,
      "Ġhydrogen": 6429,
      "ĠSever": 6430,
      "ĠSign": 6431,
      "Ġahead": 6432,
      "Ġtrials": 6433,
      "rus": 6434,
      "ĠCreat": 6435,
      "Ġinsurance": 6436,
      "Ġcompetition": 6437,
      "ett": 6438,
      "ĠSpain": 6439,
      "Ġcomments": 6440,
      "Ġgreenhouse": 6441,
      "How": 6442,
      "ĠGard": 6443,
      "ĠForest": 6444,
      "ella": 6445,
      "ctive": 6446,
      "ĠBrown": 6447,
      "ĠGal": 6448,
      "Ġdebt": 6449,
      "ĠBab": 6450,
      "Ġdepartment": 6451,
      "77": 6452,
      "Ġmagnetic": 6453,
      "ifest": 6454,
      "Ġ36": 6455,
      "Ġinstructions": 6456,
      "Ġborder": 6457,
      "Ġprove": 6458,
      "Ġindependence": 6459,
      "Ġguarant": 6460,
      "Ġobesity": 6461,
      "ĠStr": 6462,
      "Ġshot": 6463,
      "Ġath": 6464,
      "ĠEmpire": 6465,
      "ĠDig": 6466,
      "Ġpool": 6467,
      "Ġfeedback": 6468,
      "Ġhoriz": 6469,
      "95": 6470,
      "Ġdiagnosed": 6471,
      "ribe": 6472,
      "Ġepid": 6473,
      "ĠSing": 6474,
      "Ġreactions": 6475,
      "Ġgenerations": 6476,
      "Ġconnections": 6477,
      "Ġdistur": 6478,
      "Ġprompt": 6479,
      "Ġtall": 6480,
      "Ġnearby": 6481,
      "ritis": 6482,
      "Ġdelay": 6483,
      "ĠTop": 6484,
      "ĠCre": 6485,
      "Ġissued": 6486,
      "Ġpartner": 6487,
      "anta": 6488,
      ".;": 6489,
      "ĠPan": 6490,
      "Ġsmoke": 6491,
      "called": 6492,
      "een": 6493,
      "Ġfunds": 6494,
      "Ġinhib": 6495,
      "Ġprev": 6496,
      "fish": 6497,
      "Ġfu": 6498,
      "Ġmedic": 6499,
      "Ġorganisms": 6500,
      "Ġdemonstrated": 6501,
      "hered": 6502,
      "Ġpainting": 6503,
      "Ġdefe": 6504,
      "Ġclust": 6505,
      "Ġfrequent": 6506,
      "Ġcapture": 6507,
      "Ġpresentation": 6508,
      "ĠThree": 6509,
      "Ġexamine": 6510,
      "Ġobjective": 6511,
      "ora": 6512,
      "Ġcats": 6513,
      "Ġcompounds": 6514,
      "ugh": 6515,
      "Ġlegs": 6516,
      "icious": 6517,
      "Ġinstruments": 6518,
      "ĠChicago": 6519,
      "Ġmechanisms": 6520,
      "ĠAgricult": 6521,
      "Ġstroke": 6522,
      "ĠMeth": 6523,
      "ita": 6524,
      "An": 6525,
      "Ġadministr": 6526,
      "Ġscene": 6527,
      "Ġru": 6528,
      "Ġzone": 6529,
      "Ġstable": 6530,
      "eless": 6531,
      "irds": 6532,
      "Ã¼": 6533,
      "ĠAcademy": 6534,
      "cel": 6535,
      "Ġequivalent": 6536,
      "Ġcarb": 6537,
      "Ġmice": 6538,
      "asters": 6539,
      "Ġthy": 6540,
      "ĠCurrent": 6541,
      "ĠFind": 6542,
      "ĠMain": 6543,
      "aud": 6544,
      "Ġobservations": 6545,
      "Ġrelation": 6546,
      "Ġhypothes": 6547,
      "rd": 6548,
      "Ġfever": 6549,
      "Ġ75": 6550,
      "ĠBoard": 6551,
      "ĠISBN": 6552,
      "abled": 6553,
      "Ġpra": 6554,
      "eenth": 6555,
      "ĠNon": 6556,
      "tra": 6557,
      "Ġwasn": 6558,
      "bridge": 6559,
      "espread": 6560,
      "Ġexplo": 6561,
      "how": 6562,
      "Ġmaintaining": 6563,
      "ups": 6564,
      "Ġprogramming": 6565,
      "Ġlect": 6566,
      "ĠProp": 6567,
      "Ġputting": 6568,
      "Ġhur": 6569,
      "Ġsole": 6570,
      "Ġoutbre": 6571,
      "Ġconsumer": 6572,
      "ĠHoly": 6573,
      "ione": 6574,
      "Ġgap": 6575,
      "Ġreven": 6576,
      "Ġlayers": 6577,
      "Ġflag": 6578,
      "ishment": 6579,
      "ediat": 6580,
      "Ġspending": 6581,
      "Ġlaunched": 6582,
      "ĠGeorg": 6583,
      "itt": 6584,
      "Ġdelivery": 6585,
      "while": 6586,
      "Ġpoison": 6587,
      "htm": 6588,
      "Ġbot": 6589,
      "Ġmand": 6590,
      "hesis": 6591,
      "inating": 6592,
      "itely": 6593,
      "uh": 6594,
      "onia": 6595,
      "ĠBig": 6596,
      "Ġmatters": 6597,
      "Ġpair": 6598,
      "Ġestimates": 6599,
      "Ġpassage": 6600,
      "Ġzero": 6601,
      "Ġdemonstrate": 6602,
      "ĠBack": 6603,
      "Ġfract": 6604,
      "etime": 6605,
      "Is": 6606,
      "omic": 6607,
      "Ġresolution": 6608,
      "aked": 6609,
      "Ġbridge": 6610,
      "Ġindustries": 6611,
      "Ġchick": 6612,
      "Ġessays": 6613,
      "DP": 6614,
      "Ġundert": 6615,
      "ĠConn": 6616,
      "Ġfunctional": 6617,
      "Ġeveryday": 6618,
      "Ġflo": 6619,
      "Ġcounty": 6620,
      "Ġhole": 6621,
      "Ġdrain": 6622,
      "Ġsubstances": 6623,
      "iah": 6624,
      "Ġmarkets": 6625,
      "Ġoperate": 6626,
      "Ġhem": 6627,
      "Ġdanger": 6628,
      "Ġlegislation": 6629,
      "ourage": 6630,
      "Ġchallenging": 6631,
      "Ġplayers": 6632,
      "Ġentry": 6633,
      "icon": 6634,
      "ĠBus": 6635,
      "exam": 6636,
      "Ġ150": 6637,
      "Ġended": 6638,
      "Ġarrange": 6639,
      "Ġforth": 6640,
      "Ġmining": 6641,
      "Ġpositions": 6642,
      "Ġtract": 6643,
      "uts": 6644,
      "Ġexpansion": 6645,
      "ĠTeac": 6646,
      "He": 6647,
      "top": 6648,
      "Ġoblig": 6649,
      "ĠDar": 6650,
      "ighter": 6651,
      "anches": 6652,
      "Ġemployed": 6653,
      "Ġsurve": 6654,
      "Ġbanks": 6655,
      "Ġspok": 6656,
      "oven": 6657,
      "Ġparticipation": 6658,
      "ih": 6659,
      "ults": 6660,
      "Ġmeal": 6661,
      "weight": 6662,
      "ĠNever": 6663,
      "Ġaward": 6664,
      "Ġvirtual": 6665,
      "but": 6666,
      "ĠBrazil": 6667,
      "Ġsacr": 6668,
      "Ġcompare": 6669,
      "Ġagreed": 6670,
      "ĠVictor": 6671,
      "Ġforget": 6672,
      "Ġroute": 6673,
      "Ġmos": 6674,
      "earing": 6675,
      "ĠStart": 6676,
      "Ġexplanation": 6677,
      "Ġmaps": 6678,
      "ĠResearchers": 6679,
      "ureau": 6680,
      "Ġassociation": 6681,
      "Ġstreet": 6682,
      "ployment": 6683,
      "ushed": 6684,
      "Ġcommitted": 6685,
      "ĠPop": 6686,
      "Ġvs": 6687,
      "ĠIndians": 6688,
      "Ġtrip": 6689,
      "ĠEU": 6690,
      "ĠPlant": 6691,
      "word": 6692,
      "ether": 6693,
      "Ġfashion": 6694,
      "Al": 6695,
      "Ġholds": 6696,
      "ocy": 6697,
      "ĠAdv": 6698,
      "Ġnone": 6699,
      "Ġdepart": 6700,
      "Ġswim": 6701,
      "ĠAge": 6702,
      "Ġchrom": 6703,
      "Ġcategories": 6704,
      "ĠVit": 6705,
      "Ġbreath": 6706,
      "osion": 6707,
      "Ġblow": 6708,
      "Ġholding": 6709,
      "ĠSpecial": 6710,
      "ĠYoung": 6711,
      "reek": 6712,
      "Ġinvolving": 6713,
      "Ġrig": 6714,
      "dule": 6715,
      "Ġongoing": 6716,
      "Ġwidespread": 6717,
      "Ġcup": 6718,
      "azine": 6719,
      "Ġreliable": 6720,
      "ĠFamily": 6721,
      "Ġboy": 6722,
      "itivity": 6723,
      "umps": 6724,
      "plant": 6725,
      "Ġbrings": 6726,
      "Ġadequate": 6727,
      "Ġnest": 6728,
      "Ġ1997": 6729,
      "Ġscan": 6730,
      "Ġ32": 6731,
      "Ġdrawn": 6732,
      "Ġhistoric": 6733,
      "Ġastronom": 6734,
      "Ġmatch": 6735,
      "Ġneither": 6736,
      "Ġdefine": 6737,
      "ĠMer": 6738,
      "ĠMartin": 6739,
      "ĠEastern": 6740,
      "Ġcentre": 6741,
      "Ġsmooth": 6742,
      "Ġdamaged": 6743,
      "Ġapproved": 6744,
      "Ġminerals": 6745,
      "Ġfulf": 6746,
      "ĠSil": 6747,
      "Ġruns": 6748,
      "struction": 6749,
      "Ġsections": 6750,
      "irt": 6751,
      "Ġburning": 6752,
      "Ġsignificance": 6753,
      "Ġintellectual": 6754,
      "Ġenemy": 6755,
      "Ġrelief": 6756,
      "IP": 6757,
      "ĠList": 6758,
      "LA": 6759,
      "ĠCy": 6760,
      "Ġreceiving": 6761,
      "ĠItalian": 6762,
      "ĠEqu": 6763,
      "ĠJo": 6764,
      "hyth": 6765,
      "such": 6766,
      "ĠIrish": 6767,
      "Ġrivers": 6768,
      "Ġcovers": 6769,
      "erior": 6770,
      "Ġblocks": 6771,
      "Ġblind": 6772,
      "Ġstimul": 6773,
      "ented": 6774,
      "Ġbond": 6775,
      "Ġaband": 6776,
      "fit": 6777,
      "Ġinteractions": 6778,
      "Ġartists": 6779,
      "hav": 6780,
      "cycl": 6781,
      "Ġconstantly": 6782,
      "Ġvoltage": 6783,
      "opy": 6784,
      "ĠIII": 6785,
      "Ġille": 6786,
      "Ġexercises": 6787,
      "Ġtissues": 6788,
      "Ġearn": 6789,
      "Ġdeclared": 6790,
      "ading": 6791,
      "Ġtrouble": 6792,
      "55": 6793,
      "Ġshif": 6794,
      "ĠClick": 6795,
      "Ġmoisture": 6796,
      "Ġconstructed": 6797,
      "ĠParty": 6798,
      "itter": 6799,
      "Ġsomewhat": 6800,
      "Ġworry": 6801,
      "Ġtransp": 6802,
      "Ġelection": 6803,
      "that": 6804,
      "Ġvac": 6805,
      "Ġbabies": 6806,
      "Ġtight": 6807,
      "Ġvictims": 6808,
      "%)": 6809,
      "ittle": 6810,
      "Ġannounced": 6811,
      "Ġboys": 6812,
      "ymph": 6813,
      "ĠAccess": 6814,
      "Ġfer": 6815,
      "Ġoffering": 6816,
      "Ġsheet": 6817,
      "IA": 6818,
      "Ġcontrovers": 6819,
      "Ġloved": 6820,
      "ediatric": 6821,
      "Ġrank": 6822,
      "Ġbutter": 6823,
      "Ġtons": 6824,
      "Ġhun": 6825,
      "LE": 6826,
      "ĠComput": 6827,
      "Ġtexts": 6828,
      "tic": 6829,
      "rooms": 6830,
      "Ġmembr": 6831,
      "arn": 6832,
      "Ġasking": 6833,
      "ĠFour": 6834,
      "ĠSeveral": 6835,
      "Ġtheories": 6836,
      "Ġaccessible": 6837,
      "Ġmeters": 6838,
      "Ġframe": 6839,
      "Ġadvert": 6840,
      "esis": 6841,
      "Ġspaces": 6842,
      "ĠEffect": 6843,
      "oples": 6844,
      "Ġholid": 6845,
      "ĠSciences": 6846,
      "Ġserver": 6847,
      "alls": 6848,
      "Ġrepair": 6849,
      "scale": 6850,
      "Ġconven": 6851,
      "ĠHy": 6852,
      "BS": 6853,
      "Ġsettings": 6854,
      "Ġusage": 6855,
      "Ġrecommendations": 6856,
      "Ġring": 6857,
      "Ġbath": 6858,
      "Ġkne": 6859,
      "Ġturning": 6860,
      "Ġcontrols": 6861,
      "Ġfurn": 6862,
      "Ġviruses": 6863,
      "ibl": 6864,
      "Ġcav": 6865,
      "Ġske": 6866,
      "Ġreduces": 6867,
      "ĠOpen": 6868,
      "Ġentered": 6869,
      "Ġseeking": 6870,
      "Ġkidney": 6871,
      "greg": 6872,
      "Ġdivision": 6873,
      "Ġinstalled": 6874,
      "bles": 6875,
      "Ġindicated": 6876,
      "Ġdestruction": 6877,
      "Ġrice": 6878,
      "Ġphysics": 6879,
      "omp": 6880,
      "Ġhusband": 6881,
      "Ġinsulin": 6882,
      "Ġseemed": 6883,
      "Ġhonor": 6884,
      "Ġnegot": 6885,
      "iration": 6886,
      "Ġintense": 6887,
      "ĠWik": 6888,
      "agraph": 6889,
      "Ġmood": 6890,
      "Ġstrongly": 6891,
      "Ġvolcan": 6892,
      "ĠMean": 6893,
      "ulty": 6894,
      "Ġphoto": 6895,
      "Ġwithd": 6896,
      "Ġrow": 6897,
      "Ġestimate": 6898,
      "otes": 6899,
      "Ġcards": 6900,
      "oding": 6901,
      "Ġmode": 6902,
      "herent": 6903,
      "Ġrecept": 6904,
      "Ġbiod": 6905,
      "idential": 6906,
      "idity": 6907,
      "Ġstre": 6908,
      "Ġwait": 6909,
      "ĠResp": 6910,
      "Ġorgans": 6911,
      "Ġcryst": 6912,
      "Ġroles": 6913,
      "ĠCommunity": 6914,
      "Ġbeauty": 6915,
      "Ġtheme": 6916,
      "Ġcenters": 6917,
      "ĠKingdom": 6918,
      "gical": 6919,
      "Ġfacility": 6920,
      "Ġproportion": 6921,
      "isk": 6922,
      "amins": 6923,
      "Ġrealize": 6924,
      "Ġintegrated": 6925,
      "Ġmerely": 6926,
      "Ġhorses": 6927,
      "ady": 6928,
      "Ġcalories": 6929,
      "When": 6930,
      "Ġarchae": 6931,
      "Ġscript": 6932,
      "Ġalign": 6933,
      "Ġdollars": 6934,
      "Ġforg": 6935,
      "ĠPet": 6936,
      "Ġengaged": 6937,
      "05": 6938,
      "Ġofficers": 6939,
      "ĠLow": 6940,
      "ĠYear": 6941,
      "otton": 6942,
      "Ġdesigns": 6943,
      "Ġsought": 6944,
      "Ġinfluenced": 6945,
      "Ġfemales": 6946,
      "Ġmissing": 6947,
      "Ġpregnant": 6948,
      "Ġvariable": 6949,
      "Ġfavorite": 6950,
      "ĠFace": 6951,
      "Ġfro": 6952,
      "RC": 6953,
      "thritis": 6954,
      "ĠÂ·": 6955,
      "making": 6956,
      "Ġearthqu": 6957,
      "Ġarrest": 6958,
      "ĠHill": 6959,
      "Ġmechanical": 6960,
      "Ġweapons": 6961,
      "Ġwound": 6962,
      "Ġplenty": 6963,
      "ĠLib": 6964,
      "ĠRom": 6965,
      "ĠServices": 6966,
      "Ġ1996": 6967,
      "Ġcomposed": 6968,
      "Ġpounds": 6969,
      "aded": 6970,
      "Ġpharm": 6971,
      "IG": 6972,
      "Ġconversation": 6973,
      "igan": 6974,
      "pes": 6975,
      "ĠViet": 6976,
      "Ġorient": 6977,
      "Ġrely": 6978,
      "79": 6979,
      "Ġstrict": 6980,
      "ĠAtlantic": 6981,
      "Ġcomplicated": 6982,
      "Ġelectro": 6983,
      "ĠLead": 6984,
      "ĠTry": 6985,
      "Ġthanks": 6986,
      "Ġpublication": 6987,
      "Ġfold": 6988,
      "ĠTable": 6989,
      "she": 6990,
      "Ġmales": 6991,
      "ĠMen": 6992,
      "airy": 6993,
      "Ġcommission": 6994,
      "Ġmanip": 6995,
      "ey": 6996,
      "Ġpreparation": 6997,
      "Ġexamination": 6998,
      "Ġmeasurements": 6999,
      "Ġartist": 7000,
      "gers": 7001,
      "ivered": 7002,
      "Ġtub": 7003,
      "ĠLar": 7004,
      "acco": 7005,
      "esides": 7006,
      "Ġcrim": 7007,
      "%.": 7008,
      "Ġfacing": 7009,
      "ĠBill": 7010,
      "Ġrenewable": 7011,
      "Ġcm": 7012,
      "CD": 7013,
      "gov": 7014,
      "ĠAuthor": 7015,
      "inson": 7016,
      "ĠSup": 7017,
      "Ġ65": 7018,
      "42": 7019,
      "Ġsurfaces": 7020,
      "Ġglucose": 7021,
      "Ġadvantages": 7022,
      "Ġped": 7023,
      "ĠHeb": 7024,
      "Ġguidance": 7025,
      "ĠGuide": 7026,
      "Ġwriters": 7027,
      "Ġpreventing": 7028,
      "ictionary": 7029,
      "Ġcollaboration": 7030,
      "operation": 7031,
      "Ġgram": 7032,
      "Ġevaluate": 7033,
      "Ġrespectively": 7034,
      "Ġpush": 7035,
      "occ": 7036,
      "ĠTV": 7037,
      "Ġfourth": 7038,
      "Ġconsidering": 7039,
      "Ġdiscrimination": 7040,
      "yal": 7041,
      "oln": 7042,
      "forcement": 7043,
      "ĠMel": 7044,
      "Ġowner": 7045,
      "Ġoutcome": 7046,
      "Ġevil": 7047,
      "Ġbeings": 7048,
      "Ġslavery": 7049,
      "Ġincred": 7050,
      "car": 7051,
      "Ġtemple": 7052,
      "Ġmeasurement": 7053,
      "ĠLanguage": 7054,
      "Ġsharp": 7055,
      "Ġcontemporary": 7056,
      "Ġarts": 7057,
      "Ġnervous": 7058,
      "Ġcriteria": 7059,
      "Ġneur": 7060,
      "onn": 7061,
      "Ġproof": 7062,
      "Ġescape": 7063,
      "ĠNext": 7064,
      "ĠCho": 7065,
      "Ġfarming": 7066,
      "Ġmaintained": 7067,
      "Ġcategory": 7068,
      "Ġdistributed": 7069,
      "Ġdys": 7070,
      "Ġclothing": 7071,
      "hent": 7072,
      "Ġcaptured": 7073,
      "ĠNaz": 7074,
      "Ġcoastal": 7075,
      "elesc": 7076,
      "ĠOrig": 7077,
      "gs": 7078,
      "ĠGrand": 7079,
      "ĠImm": 7080,
      "ocation": 7081,
      "iability": 7082,
      "Ġtube": 7083,
      "Ġingredients": 7084,
      "Ġscore": 7085,
      "Ġrocks": 7086,
      "quit": 7087,
      "ĠWithout": 7088,
      "Ġprohib": 7089,
      "ĠSecurity": 7090,
      "ĠNut": 7091,
      "cul": 7092,
      "ĠEst": 7093,
      "Ġtheore": 7094,
      "rency": 7095,
      "Ġmortality": 7096,
      "rary": 7097,
      "rene": 7098,
      "Ġopposed": 7099,
      "Ġcareful": 7100,
      "Ġattempts": 7101,
      "isdom": 7102,
      "arsh": 7103,
      "ĠSecret": 7104,
      "Ġgradually": 7105,
      "ĠAsian": 7106,
      "ctor": 7107,
      "ĠArticle": 7108,
      "Ġinn": 7109,
      "Ġ1995": 7110,
      "ĠYes": 7111,
      "ĠAgency": 7112,
      "Ġbringing": 7113,
      "roduction": 7114,
      "ĠPo": 7115,
      "ĠChristmas": 7116,
      "Ġserving": 7117,
      "sts": 7118,
      "abulary": 7119,
      "Ġsilver": 7120,
      "rey": 7121,
      "Ġaccuracy": 7122,
      "Ġclaimed": 7123,
      "Ġsigned": 7124,
      "bra": 7125,
      "opes": 7126,
      "Ġrarely": 7127,
      "ĠResources": 7128,
      "Ġnose": 7129,
      "ĠPak": 7130,
      "Ġplus": 7131,
      "Ġbreeding": 7132,
      "comm": 7133,
      "Ġparallel": 7134,
      "rane": 7135,
      "ĠIslam": 7136,
      "ĠFund": 7137,
      "Ġparas": 7138,
      "ĠPerhaps": 7139,
      "ĠDistrict": 7140,
      "Ġfairly": 7141,
      "Ġcombat": 7142,
      "ixture": 7143,
      "itals": 7144,
      "cons": 7145,
      "Ġirrit": 7146,
      "88": 7147,
      "Ġdependent": 7148,
      "Ġjump": 7149,
      "Ġmoves": 7150,
      "apse": 7151,
      "Ġagents": 7152,
      "Ġdose": 7153,
      "oom": 7154,
      "Ġcarrying": 7155,
      "Ġcrew": 7156,
      "ĠIndust": 7157,
      "ĠSir": 7158,
      "ĠMS": 7159,
      "etics": 7160,
      "Ġteams": 7161,
      "Ġessentially": 7162,
      "Ġshock": 7163,
      "Ġproven": 7164,
      "Ġuncertain": 7165,
      "Ġphenomenon": 7166,
      "Ġracial": 7167,
      "Ġdischar": 7168,
      "Ġintest": 7169,
      "Ã³": 7170,
      "aming": 7171,
      "Ġknowing": 7172,
      "ĠEp": 7173,
      "heimer": 7174,
      "health": 7175,
      "Ġconfirmed": 7176,
      "asty": 7177,
      "Ġencouraged": 7178,
      "ani": 7179,
      "ĠZeal": 7180,
      "Ġmessages": 7181,
      "43": 7182,
      "Ġrespiratory": 7183,
      "Ġmm": 7184,
      "Ġcompris": 7185,
      "peror": 7186,
      "Ġstronger": 7187,
      "Ġcleaning": 7188,
      "rowing": 7189,
      "Ġpassing": 7190,
      "Ġsubsequent": 7191,
      "Ġremoval": 7192,
      "cient": 7193,
      "Ġimagine": 7194,
      "Ġuniversal": 7195,
      "66": 7196,
      "Ġexcessive": 7197,
      "ĠDown": 7198,
      "Ġconsiderable": 7199,
      "Ġsatellite": 7200,
      "Ġproved": 7201,
      "RA": 7202,
      "Ġ1950": 7203,
      "Ġvisitors": 7204,
      "Ġdelivered": 7205,
      "ĠPolic": 7206,
      "ommod": 7207,
      "ĠDen": 7208,
      "Ġpoem": 7209,
      "Ġaims": 7210,
      "Ġpeak": 7211,
      "Ġfocuses": 7212,
      "Ã¶": 7213,
      "ĠRock": 7214,
      "Ġdealing": 7215,
      "aska": 7216,
      "Ġangle": 7217,
      "Ġabnormal": 7218,
      "Ġdesired": 7219,
      "Ġguard": 7220,
      "Ġheating": 7221,
      "ĠAngel": 7222,
      "Ġpresents": 7223,
      "Ġoverw": 7224,
      "Ġcopper": 7225,
      "roat": 7226,
      "Ġanalys": 7227,
      "ĠPrinc": 7228,
      "ĠWhich": 7229,
      "Ġislands": 7230,
      "ĠMuslim": 7231,
      "incoln": 7232,
      "ventions": 7233,
      "Ġinformed": 7234,
      "Ġimplemented": 7235,
      "Ġdefense": 7236,
      "rial": 7237,
      "Ġplanned": 7238,
      "sen": 7239,
      "Ġdisaster": 7240,
      "Ġinfant": 7241,
      "ĠSym": 7242,
      "ĠAdministration": 7243,
      "Ġcomfortable": 7244,
      "Ġshapes": 7245,
      "Ġdifficulties": 7246,
      "Ġprincipal": 7247,
      "ruption": 7248,
      "Ġeffectiveness": 7249,
      "Ġsail": 7250,
      "rite": 7251,
      "Ġremed": 7252,
      "41": 7253,
      "Ġjudge": 7254,
      "Ġimplications": 7255,
      "onomy": 7256,
      "Ġlake": 7257,
      "ĠWhether": 7258,
      "New": 7259,
      "Ġvarieties": 7260,
      "Ġmetabol": 7261,
      "Ġreward": 7262,
      "Ġdomain": 7263,
      "orders": 7264,
      "Ġcircle": 7265,
      "olving": 7266,
      "ĠJac": 7267,
      "ĠChange": 7268,
      "Ġphotos": 7269,
      "ohyd": 7270,
      "theless": 7271,
      "Ġequally": 7272,
      "ĠWord": 7273,
      "ĠMult": 7274,
      "Ġbiology": 7275,
      "oston": 7276,
      "'m": 7277,
      "01": 7278,
      "ĠChapter": 7279,
      "Ġseconds": 7280,
      "aired": 7281,
      "Ġlie": 7282,
      "tles": 7283,
      "ĠZealand": 7284,
      "ĠAP": 7285,
      "Ġtreating": 7286,
      "Ġsales": 7287,
      "ĠPy": 7288,
      "osh": 7289,
      "For": 7290,
      "Ġabsence": 7291,
      "Ġdetection": 7292,
      "Ġsession": 7293,
      "outs": 7294,
      "ĠVer": 7295,
      "Ġempt": 7296,
      "Ġgained": 7297,
      "orph": 7298,
      "Ġlaid": 7299,
      "Ġasthma": 7300,
      "Ġunusual": 7301,
      "Ġlearners": 7302,
      "ĠDou": 7303,
      "Ph": 7304,
      "eness": 7305,
      "ĠSund": 7306,
      "Ġedition": 7307,
      "Ġfishing": 7308,
      "Ġroads": 7309,
      "ĠDirector": 7310,
      "Ġnewly": 7311,
      "OC": 7312,
      "ĠSuper": 7313,
      "ĠGr": 7314,
      "Ġhappening": 7315,
      "ĠOxford": 7316,
      "Ġinterpretation": 7317,
      "Ġroughly": 7318,
      "Ġtelevision": 7319,
      "ĠLess": 7320,
      "vard": 7321,
      "Ġprominent": 7322,
      "Ġinher": 7323,
      "ĠModern": 7324,
      "Ġclar": 7325,
      "ĠÂ©": 7326,
      "ĠPot": 7327,
      "Ġfalls": 7328,
      "oir": 7329,
      "Ġcriminal": 7330,
      "Ġwine": 7331,
      "IDS": 7332,
      "hyd": 7333,
      "UN": 7334,
      "Ġbranches": 7335,
      "Ġconcerning": 7336,
      "Ġcooking": 7337,
      "Ġdeeper": 7338,
      "raining": 7339,
      "Ġremind": 7340,
      "Ġfung": 7341,
      "olesc": 7342,
      "Ġturb": 7343,
      "iral": 7344,
      "Ġscreening": 7345,
      "Ġterror": 7346,
      "ĠTim": 7347,
      "OL": 7348,
      "eli": 7349,
      "abeth": 7350,
      "Ġassume": 7351,
      "Ġgut": 7352,
      "Ġmold": 7353,
      "Ġchest": 7354,
      "Ġencoun": 7355,
      "Ġelected": 7356,
      "Ġscar": 7357,
      "Ġstatistics": 7358,
      "Ġneighborhood": 7359,
      "Ġacute": 7360,
      "Ġid": 7361,
      "Ġ400": 7362,
      "Ġ38": 7363,
      "Ġsoul": 7364,
      "Ġvariables": 7365,
      "Ġradical": 7366,
      "Ġproceed": 7367,
      "Ġfed": 7368,
      "Ġhealing": 7369,
      "Ġflower": 7370,
      "ĠSwed": 7371,
      "Ġslaves": 7372,
      "Ġexclus": 7373,
      "alm": 7374,
      "Ġdecor": 7375,
      "rison": 7376,
      "Ġbomb": 7377,
      "ĠMah": 7378,
      "Ġinfect": 7379,
      "Ġsport": 7380,
      "Ġflour": 7381,
      "Ġworship": 7382,
      "Ġmaybe": 7383,
      "ogether": 7384,
      "Ar": 7385,
      "Ġfinished": 7386,
      "Ġholes": 7387,
      "Ġsuffered": 7388,
      "Ġscientist": 7389,
      "Ġdemands": 7390,
      "Ġouter": 7391,
      "Ġpanel": 7392,
      "Ġsenior": 7393,
      "71": 7394,
      "oga": 7395,
      "Ġchlor": 7396,
      "Ġbreed": 7397,
      "ounce": 7398,
      "rous": 7399,
      "Ġstead": 7400,
      "Ġserves": 7401,
      "Ġadm": 7402,
      "American": 7403,
      "Ġpand": 7404,
      "Ġrab": 7405,
      "Ġinvestigation": 7406,
      "Ġgrain": 7407,
      "Ġminute": 7408,
      "ovascular": 7409,
      "Ġmathematics": 7410,
      "Ġeliminate": 7411,
      "Ġbigger": 7412,
      "chen": 7413,
      "Ġspectrum": 7414,
      "Ġcorrel": 7415,
      "Ġinnovation": 7416,
      "Ġcaught": 7417,
      "Ġcharacterized": 7418,
      "Ġtargets": 7419,
      "ĠAgain": 7420,
      "Ġrose": 7421,
      "Ġexamined": 7422,
      "Ġcolumn": 7423,
      "Ġmineral": 7424,
      "haust": 7425,
      "Ġfest": 7426,
      "Ġfilter": 7427,
      "ĠCast": 7428,
      "eren": 7429,
      "heric": 7430,
      "Ġstring": 7431,
      "Ġphysician": 7432,
      "Ġintent": 7433,
      "Ġinterpre": 7434,
      "vin": 7435,
      "ĠChristians": 7436,
      "Ġanywhere": 7437,
      "Ġsatisf": 7438,
      "ĠHaving": 7439,
      "ĠCentre": 7440,
      "Ġordered": 7441,
      "ĠTre": 7442,
      "Ġsubstantial": 7443,
      "Ġcham": 7444,
      "ĠMD": 7445,
      "Ġcompens": 7446,
      "Ġusual": 7447,
      "Ġdefend": 7448,
      "Ġov": 7449,
      "Ġfaced": 7450,
      "Ġinitially": 7451,
      "ĠJohnson": 7452,
      "Ġlights": 7453,
      "bec": 7454,
      "Ġplane": 7455,
      "ĠJeff": 7456,
      "Ġcash": 7457,
      "essions": 7458,
      "riend": 7459,
      "Ġye": 7460,
      "iana": 7461,
      "ano": 7462,
      "ograp": 7463,
      "HD": 7464,
      "AA": 7465,
      "Ġobserve": 7466,
      "agram": 7467,
      "Ġconsideration": 7468,
      "icted": 7469,
      "Ġgro": 7470,
      "istical": 7471,
      "ricts": 7472,
      "Ġpestic": 7473,
      "ĠMethod": 7474,
      "ishop": 7475,
      "example": 7476,
      "Ġtransact": 7477,
      "Ġliteracy": 7478,
      "Ġmarks": 7479,
      "ĠJul": 7480,
      "Ġhazard": 7481,
      "cyclop": 7482,
      "Ġunw": 7483,
      "Ġ48": 7484,
      "ĠSafety": 7485,
      "ĠWall": 7486,
      "ĠIran": 7487,
      "Ġprinted": 7488,
      "ĠPakistan": 7489,
      "ilation": 7490,
      "ĠCoast": 7491,
      "Ġprovider": 7492,
      "vania": 7493,
      "ĠMoon": 7494,
      "Ġmanifest": 7495,
      "ĠTreatment": 7496,
      "Ġconqu": 7497,
      "ĠEliz": 7498,
      "Ġassigned": 7499,
      "Ġbranch": 7500,
      "Ġhoney": 7501,
      "Ġhormone": 7502,
      "Ġwarning": 7503,
      "Ġthreats": 7504,
      "Ġdates": 7505,
      "Ġearliest": 7506,
      "CE": 7507,
      "IR": 7508,
      "Ġtrigger": 7509,
      "lishing": 7510,
      "nat": 7511,
      "adder": 7512,
      "itarian": 7513,
      "Ġexceed": 7514,
      "unicip": 7515,
      "Ġslave": 7516,
      "elfare": 7517,
      "ĠSet": 7518,
      "Ġtraditions": 7519,
      "oured": 7520,
      "coming": 7521,
      "Ġgranted": 7522,
      "ĠFather": 7523,
      "illa": 7524,
      "eut": 7525,
      "Ġdriven": 7526,
      "rav": 7527,
      "Ġrecover": 7528,
      "Ġcorner": 7529,
      "mes": 7530,
      "ĠLight": 7531,
      "itual": 7532,
      "Ġcab": 7533,
      "IM": 7534,
      "Ġhosp": 7535,
      "Ġheavily": 7536,
      "ĠSupreme": 7537,
      "Ġevolved": 7538,
      "ĠWorks": 7539,
      "Ġpit": 7540,
      "Ġspin": 7541,
      "Ġamazing": 7542,
      "Ġcompound": 7543,
      "Ġgalax": 7544,
      "Ġconsume": 7545,
      "Ġmicrob": 7546,
      "Ġnitrogen": 7547,
      "Ġstructural": 7548,
      "ĠNetwork": 7549,
      "ĠLo": 7550,
      "Ġceremon": 7551,
      "Ġstations": 7552,
      "Ġ1994": 7553,
      "________": 7554,
      "Ġcattle": 7555,
      "Ġmicrosc": 7556,
      "riz": 7557,
      "Ġstatements": 7558,
      "Ġmolecular": 7559,
      "ĠRemember": 7560,
      "ĠKey": 7561,
      "ĠLincoln": 7562,
      "ĠVen": 7563,
      "uality": 7564,
      "ĠOhio": 7565,
      "ĠType": 7566,
      "Ġrac": 7567,
      "Ġ)": 7568,
      "mm": 7569,
      "iological": 7570,
      "Ġtrends": 7571,
      "Ġaccommod": 7572,
      "Ġmodified": 7573,
      "ĠColumbia": 7574,
      "ĠAND": 7575,
      "arents": 7576,
      "ĠSar": 7577,
      "Ġengineers": 7578,
      "Ġstuff": 7579,
      "emia": 7580,
      "Ġdecreased": 7581,
      "Ġschedule": 7582,
      "Ġaccompan": 7583,
      "ĠAlz": 7584,
      "erted": 7585,
      "Ġconcluded": 7586,
      "ĠHebrew": 7587,
      "ĠSource": 7588,
      "syl": 7589,
      "ucky": 7590,
      "Ġadds": 7591,
      "Ġinspired": 7592,
      "Ġprinting": 7593,
      "icing": 7594,
      "Ġexception": 7595,
      "pling": 7596,
      "ĠPrevention": 7597,
      "ĠScientists": 7598,
      "oric": 7599,
      "iary": 7600,
      "Ġliterary": 7601,
      "Ġstores": 7602,
      "rox": 7603,
      "ontal": 7604,
      "Ġsitting": 7605,
      "Ġvariation": 7606,
      "Ġstrengthen": 7607,
      "bar": 7608,
      "fts": 7609,
      "ptions": 7610,
      "Ġparagraph": 7611,
      "ĠKorea": 7612,
      "Ġindigenous": 7613,
      "Ġkilomet": 7614,
      "ĠOrganization": 7615,
      "ested": 7616,
      "Ġobservation": 7617,
      "Ġfinds": 7618,
      "ĠAM": 7619,
      "Ġitem": 7620,
      "ĠBoston": 7621,
      "Ġlistening": 7622,
      "ĠContin": 7623,
      "73": 7624,
      "ioxid": 7625,
      "Ġenorm": 7626,
      "Ġcomplications": 7627,
      "ĠBu": 7628,
      "aneously": 7629,
      "ĠFire": 7630,
      "SS": 7631,
      "Ġtropical": 7632,
      "Ġplot": 7633,
      "Ġplayer": 7634,
      "ude": 7635,
      "Ġdiameter": 7636,
      "asant": 7637,
      "Ġdetected": 7638,
      "Ġwrites": 7639,
      "gence": 7640,
      "ersonal": 7641,
      "Ġphosph": 7642,
      "Ġsplit": 7643,
      "ĠDev": 7644,
      "Ġconce": 7645,
      "Ġeditor": 7646,
      "Ġpros": 7647,
      "Ġnarrative": 7648,
      "ĠAsk": 7649,
      "Ġ33": 7650,
      "sell": 7651,
      "Ġdisrupt": 7652,
      "ĠEr": 7653,
      "ĠMinister": 7654,
      "ĠIndeed": 7655,
      "rance": 7656,
      "ieval": 7657,
      "yer": 7658,
      "ĠStar": 7659,
      "72": 7660,
      "ĠColl": 7661,
      "igue": 7662,
      "Ġwindows": 7663,
      "ĠTom": 7664,
      "Ġpeoples": 7665,
      "Ġduty": 7666,
      "atively": 7667,
      "including": 7668,
      "Ġreveal": 7669,
      "ĠReading": 7670,
      "Ġprocessed": 7671,
      "Ġovercome": 7672,
      "Ġformula": 7673,
      "uten": 7674,
      "ĠLiter": 7675,
      "Ġerrors": 7676,
      "ĠSand": 7677,
      "Ġvideos": 7678,
      "Ġisolated": 7679,
      "ĠOper": 7680,
      "Ġsup": 7681,
      "ĠPur": 7682,
      "Ġdisabilities": 7683,
      "isco": 7684,
      "Ġinhabit": 7685,
      "Ġobjectives": 7686,
      "ostic": 7687,
      "Ġacres": 7688,
      "Ġexperiencing": 7689,
      "Ġworst": 7690,
      "Ġstability": 7691,
      "Ġflows": 7692,
      "Ġunion": 7693,
      "Ġsus": 7694,
      "Ġorbit": 7695,
      "Ġmeasuring": 7696,
      "Ġsunlight": 7697,
      "Ġalter": 7698,
      "Ġperception": 7699,
      "ĠInit": 7700,
      "Ġtaxes": 7701,
      "night": 7702,
      "68": 7703,
      "Ġdirected": 7704,
      "class": 7705,
      "Ġexperimental": 7706,
      "ĠAlzheimer": 7707,
      "ĠThanks": 7708,
      "effect": 7709,
      "ette": 7710,
      "Ġhence": 7711,
      "Ġcorrectly": 7712,
      "Ġheads": 7713,
      "Ġbees": 7714,
      "ipedia": 7715,
      "Ġtut": 7716,
      "ĠBusiness": 7717,
      "Ġregulation": 7718,
      "Ġepis": 7719,
      "Ġreaching": 7720,
      "Ġintensity": 7721,
      "Ġviewed": 7722,
      "Ġgrows": 7723,
      "Ġmusical": 7724,
      "ĠUr": 7725,
      "ima": 7726,
      "Ġmeals": 7727,
      "semb": 7728,
      "Ġcounsel": 7729,
      "Ġvitamins": 7730,
      "Ġaged": 7731,
      "ĠPen": 7732,
      "ĠUt": 7733,
      "UT": 7734,
      "Ġcommitment": 7735,
      "century": 7736,
      "Ġdrought": 7737,
      "Ġacquired": 7738,
      "df": 7739,
      "Ġcoverage": 7740,
      "Ġgrid": 7741,
      "ali": 7742,
      "Ġmountains": 7743,
      "Ġproviders": 7744,
      "otype": 7745,
      "Ġemphasis": 7746,
      "ĠScotland": 7747,
      "ĠEngineering": 7748,
      "Ġgirl": 7749,
      "Ġconference": 7750,
      "Ġoldest": 7751,
      "Ġidentification": 7752,
      "sylvania": 7753,
      "Ġcontribution": 7754,
      "ansas": 7755,
      "ĠAvoid": 7756,
      "Ġprotecting": 7757,
      "ĠFollowing": 7758,
      "Ġabilities": 7759,
      "Ġargue": 7760,
      "orted": 7761,
      "ĠHeart": 7762,
      "Ġgiant": 7763,
      "Ġcontributed": 7764,
      "Ġvictim": 7765,
      "Ġclient": 7766,
      "ĠKar": 7767,
      "igate": 7768,
      "Ġathlet": 7769,
      "oids": 7770,
      "Ġidentifying": 7771,
      "isted": 7772,
      "Ġbiom": 7773,
      "Ã¢": 7774,
      "iture": 7775,
      "Ġautism": 7776,
      "Ġrelie": 7777,
      "Ġtranslation": 7778,
      "ĠBul": 7779,
      "ĠUnlike": 7780,
      "sm": 7781,
      "ĠAmaz": 7782,
      "Ġsuperior": 7783,
      "ustain": 7784,
      "Ġpy": 7785,
      "ĠBeing": 7786,
      "Ġpin": 7787,
      "ĠQueen": 7788,
      "icy": 7789,
      "ĠRoad": 7790,
      "cking": 7791,
      "74": 7792,
      "ĠHor": 7793,
      "Ġphrase": 7794,
      "amics": 7795,
      "ĠOl": 7796,
      "produ": 7797,
      "Ġadvent": 7798,
      "Ġoccurring": 7799,
      "Ġfunctioning": 7800,
      "athered": 7801,
      "Ġfarms": 7802,
      "from": 7803,
      "Ġextend": 7804,
      "ĠGeorgia": 7805,
      "door": 7806,
      "Ġdriver": 7807,
      "Ġwheel": 7808,
      "Ġstrain": 7809,
      "Ġuniform": 7810,
      "etary": 7811,
      "Ġconserv": 7812,
      "rays": 7813,
      "Ġbag": 7814,
      "Ġinequ": 7815,
      "Ġ180": 7816,
      "Ġagent": 7817,
      "Ġcort": 7818,
      "ĠCross": 7819,
      "Ġregardless": 7820,
      "Ġdemocracy": 7821,
      "ĠImp": 7822,
      "Ġconj": 7823,
      "Ġseat": 7824,
      "Ġperm": 7825,
      "?\"": 7826,
      "Ġcolonial": 7827,
      "ĠHand": 7828,
      "ĠCorn": 7829,
      "ura": 7830,
      "ĠHim": 7831,
      "ĠEdward": 7832,
      "Ġdynamic": 7833,
      "Ġdecay": 7834,
      "Ġquiet": 7835,
      "Ġton": 7836,
      "Ġsuscept": 7837,
      "ĠBattle": 7838,
      "Ġcoc": 7839,
      "Ġchannel": 7840,
      "gien": 7841,
      "Ġstake": 7842,
      "net": 7843,
      "ĠLy": 7844,
      "Ġoverwhel": 7845,
      "ĠHospital": 7846,
      "erty": 7847,
      "ĠFacebook": 7848,
      "Ġweakness": 7849,
      "Ġpersonality": 7850,
      "Ġinnovative": 7851,
      "Ġquantity": 7852,
      "ĠProtection": 7853,
      "Ġvocabulary": 7854,
      "ĠLee": 7855,
      "Ġcalling": 7856,
      "Ġnice": 7857,
      "Ġasc": 7858,
      "angered": 7859,
      "Ġantibiotics": 7860,
      "ĠDutch": 7861,
      "ĠFar": 7862,
      "Ġplanting": 7863,
      "ĠDue": 7864,
      "Ġwheat": 7865,
      "Ġregarded": 7866,
      "ercury": 7867,
      "Ġcovering": 7868,
      "ĠOnline": 7869,
      "enger": 7870,
      "Ġshoot": 7871,
      "Ġadverse": 7872,
      "Ġprofit": 7873,
      "Ġcooling": 7874,
      "ĠForce": 7875,
      "ĠRh": 7876,
      "Ġexhaust": 7877,
      "onym": 7878,
      "Ġaddressed": 7879,
      "writ": 7880,
      "Ġsettlement": 7881,
      "ĠNov": 7882,
      "just": 7883,
      "Ġsurge": 7884,
      "Ġmir": 7885,
      "Ġfalling": 7886,
      "ĠMichigan": 7887,
      "Ġmixture": 7888,
      "holders": 7889,
      "Ġappointed": 7890,
      "ĠElizabeth": 7891,
      "ĠPlay": 7892,
      "rection": 7893,
      "Ġstones": 7894,
      "Ġvisited": 7895,
      "opic": 7896,
      "Ġmg": 7897,
      "Ġkilling": 7898,
      "ĠIncre": 7899,
      "Ġsummary": 7900,
      "Ġhidden": 7901,
      "lines": 7902,
      "ĠHead": 7903,
      "Ġquarter": 7904,
      "va": 7905,
      "Ġbless": 7906,
      "ĠConservation": 7907,
      "85": 7908,
      "uset": 7909,
      "Ġmanufacturers": 7910,
      "Ġritual": 7911,
      "Ġofficer": 7912,
      "Ġprotective": 7913,
      "Ġrepresentation": 7914,
      "Sp": 7915,
      "Ġran": 7916,
      "Ġpsychology": 7917,
      "Ġrational": 7918,
      "Ġtowns": 7919,
      "Ġproductivity": 7920,
      "ba": 7921,
      "ogs": 7922,
      "Ġpla": 7923,
      "Ġmoderate": 7924,
      "Ġprogramme": 7925,
      "Ġfatty": 7926,
      "oli": 7927,
      "Ġdietary": 7928,
      "quar": 7929,
      "usalem": 7930,
      "ĠPennsylvania": 7931,
      "Ġlaser": 7932,
      "Ġmyst": 7933,
      "otherapy": 7934,
      "ĠIV": 7935,
      "Ġalive": 7936,
      "ĠPolit": 7937,
      "Ġeducators": 7938,
      "Ġthereby": 7939,
      "ĠDivision": 7940,
      "Ġforming": 7941,
      "Ġprosp": 7942,
      "Ġcustomer": 7943,
      "Ġbacterial": 7944,
      "Ġsmell": 7945,
      "quir": 7946,
      "ĠPalest": 7947,
      "Ġcoron": 7948,
      "usetts": 7949,
      "ĠIdent": 7950,
      "Ġhardware": 7951,
      "Ġsubt": 7952,
      "Ġopposition": 7953,
      "achusetts": 7954,
      "otal": 7955,
      "ĠSurvey": 7956,
      "print": 7957,
      "ĠSpirit": 7958,
      "Ġgases": 7959,
      "Ġelder": 7960,
      "ĠPM": 7961,
      "atial": 7962,
      "ĠAssess": 7963,
      "Ġinsight": 7964,
      "Ġscores": 7965,
      "Ġfinger": 7966,
      "Ġtribes": 7967,
      "Ġaffecting": 7968,
      "Ġhumanity": 7969,
      "Ġpreced": 7970,
      "Ġauthent": 7971,
      "Ġmine": 7972,
      "acts": 7973,
      "HS": 7974,
      "Ġadvis": 7975,
      "rolled": 7976,
      "Ġassets": 7977,
      "Ġampl": 7978,
      "Ġcure": 7979,
      "Ġillegal": 7980,
      "ogenic": 7981,
      "Ġvaccines": 7982,
      "uther": 7983,
      "ĠVitamin": 7984,
      "Ġbelieves": 7985,
      "mers": 7986,
      "ĠLater": 7987,
      "Ġcharacteristic": 7988,
      "Ġreporting": 7989,
      "ulpt": 7990,
      "Ġconcentrations": 7991,
      "ĠIns": 7992,
      "aret": 7993,
      "ĠObs": 7994,
      "Ġresearcher": 7995,
      "urated": 7996,
      "urches": 7997,
      "Ġrhyth": 7998,
      "ographical": 7999,
      "Ġ55": 8000,
      "Ġpreserve": 8001,
      "Ġburied": 8002,
      "Ġordinary": 8003,
      "Ġstopped": 8004,
      "ĠDid": 8005,
      "Ġsupplements": 8006,
      "Ġbatteries": 8007,
      "Ġtrauma": 8008,
      "Ġcotton": 8009,
      "Ġdisability": 8010,
      "ĠWay": 8011,
      "Ġaimed": 8012,
      "awn": 8013,
      "allow": 8014,
      "Ġconsumed": 8015,
      "Ġchances": 8016,
      "ĠBased": 8017,
      "Ġlens": 8018,
      "Ġpanels": 8019,
      "ĠVar": 8020,
      "irms": 8021,
      "Ġargued": 8022,
      "itory": 8023,
      "CA": 8024,
      "Ġowned": 8025,
      "alities": 8026,
      "Ġ1992": 8027,
      "ĠMot": 8028,
      "Ġpoetry": 8029,
      "Ġheritage": 8030,
      "Ġcomprom": 8031,
      "ruit": 8032,
      "Ġtob": 8033,
      "Ġdress": 8034,
      "Ġseparated": 8035,
      "aws": 8036,
      "Ġdism": 8037,
      "Ġdance": 8038,
      "HA": 8039,
      "Ġtechnological": 8040,
      "Ġimaging": 8041,
      "ĠLittle": 8042,
      "Ġlungs": 8043,
      "apor": 8044,
      "Ġpointed": 8045,
      "ĠCP": 8046,
      "Ġabstract": 8047,
      "ĠDesc": 8048,
      "inf": 8049,
      "real": 8050,
      "Ġresid": 8051,
      "Ġsimult": 8052,
      "Ġfellow": 8053,
      "ĠIra": 8054,
      "Ġachievement": 8055,
      "Ġdescript": 8056,
      "Ġharder": 8057,
      "Ġhunting": 8058,
      "har": 8059,
      "Ġorders": 8060,
      "aneous": 8061,
      "Ġsizes": 8062,
      "archy": 8063,
      "Ġwisdom": 8064,
      "ĠPolicy": 8065,
      "Ġcyber": 8066,
      "Ġmothers": 8067,
      "Ġrobot": 8068,
      "ptom": 8069,
      "Ġexciting": 8070,
      "Ġsensitivity": 8071,
      "Ġautomatically": 8072,
      "Ġ1930": 8073,
      "Ġcharged": 8074,
      "advant": 8075,
      "Ġinitiative": 8076,
      "Ġsteam": 8077,
      "Ġavailability": 8078,
      "hea": 8079,
      "Ġmosquit": 8080,
      "Ġversions": 8081,
      "adel": 8082,
      "Ġinterventions": 8083,
      "lims": 8084,
      "Ġconfig": 8085,
      "Ġsensors": 8086,
      "Ġenables": 8087,
      "ĠArctic": 8088,
      "endment": 8089,
      ".'": 8090,
      "Ġcreatures": 8091,
      "neys": 8092,
      "brid": 8093,
      "Ġmigration": 8094,
      "ĠJerusalem": 8095,
      "Un": 8096,
      "Ġexpanded": 8097,
      "dr": 8098,
      "Ġ1993": 8099,
      "Ġflying": 8100,
      "Ġarray": 8101,
      "ĠColorado": 8102,
      "ĠCell": 8103,
      "ĠWal": 8104,
      "Ġroyal": 8105,
      "iments": 8106,
      "asts": 8107,
      "Ġquantum": 8108,
      "Ġimprovements": 8109,
      "Ġalph": 8110,
      "Ġsubstit": 8111,
      "plete": 8112,
      "Ġdramatic": 8113,
      "hus": 8114,
      "ĠChristianity": 8115,
      "ĠWindows": 8116,
      "Ġfought": 8117,
      "OM": 8118,
      "ĠMcC": 8119,
      "ĠNeu": 8120,
      "ĠImpro": 8121,
      "ĠMassachusetts": 8122,
      "Ġcarbohyd": 8123,
      "Ġintroduce": 8124,
      "Ġattitude": 8125,
      "Ġles": 8126,
      "Ġlosses": 8127,
      "Ġtong": 8128,
      "Ġchemistry": 8129,
      "Ġelsewhere": 8130,
      "Ġvan": 8131,
      "Ġvertical": 8132,
      "Ġcord": 8133,
      "Ġmanaging": 8134,
      "ĠÂ£": 8135,
      "Ġanalyze": 8136,
      "Ġwonderful": 8137,
      "Ġsocieties": 8138,
      "Ġirrig": 8139,
      "ĠConsider": 8140,
      "Ġcas": 8141,
      "anger": 8142,
      "Ġthermal": 8143,
      "Ġchap": 8144,
      "Ġpermission": 8145,
      "ĠIslamic": 8146,
      "ician": 8147,
      "Ġplain": 8148,
      "forest": 8149,
      "Ġherb": 8150,
      "ĠParliament": 8151,
      "Ġneutral": 8152,
      "Ġfuels": 8153,
      "Ġphysically": 8154,
      "Ġconsciousness": 8155,
      "ĠCr": 8156,
      "ĠConfed": 8157,
      "Ġmathematical": 8158,
      "reated": 8159,
      "Ġease": 8160,
      "Ġtumor": 8161,
      "Ġvel": 8162,
      "Ġtor": 8163,
      "Ġplanets": 8164,
      "Ġantioxid": 8165,
      "Ġensuring": 8166,
      "Ġlymph": 8167,
      "adow": 8168,
      "ao": 8169,
      "Ġbrows": 8170,
      "Ġkeeps": 8171,
      "ourse": 8172,
      "Ġembra": 8173,
      "Ġpandemic": 8174,
      "Ġsevent": 8175,
      "Ġexpectations": 8176,
      "Ġven": 8177,
      "ymes": 8178,
      "irth": 8179,
      "Ġadolesc": 8180,
      "Ġevening": 8181,
      "Ġpolar": 8182,
      "Ġboat": 8183,
      "ecess": 8184,
      "Ġurine": 8185,
      "Ġdeficiency": 8186,
      "69": 8187,
      "apping": 8188,
      "Ġtobacco": 8189,
      "Ġpropag": 8190,
      "Ġspr": 8191,
      "Ġrect": 8192,
      "ols": 8193,
      "Ġreasonable": 8194,
      "ĠSmall": 8195,
      "ricted": 8196,
      "ivest": 8197,
      "Ġmarketing": 8198,
      "Ġlip": 8199,
      "ĠCambridge": 8200,
      "Ġsettled": 8201,
      "Ġcalculated": 8202,
      "Ġentertain": 8203,
      "Ġethical": 8204,
      "ĠBuilding": 8205,
      "Ġflash": 8206,
      "Ġexhibit": 8207,
      "Ġwaiting": 8208,
      "ĠSpring": 8209,
      "Ġfats": 8210,
      "ĠStill": 8211,
      "Ġexecutive": 8212,
      "Ġtick": 8213,
      "Ġdrivers": 8214,
      "Ġsched": 8215,
      "Ġgrains": 8216,
      "Ġemotion": 8217,
      "pled": 8218,
      "Ġexploration": 8219,
      "ĠBlue": 8220,
      "Ġthreatened": 8221,
      "ĠBooks": 8222,
      "Ġemerging": 8223,
      "ĠâĨ": 8224,
      "Ġcommunications": 8225,
      "Ġengaging": 8226,
      "Ġ1991": 8227,
      "Ġvariations": 8228,
      "EE": 8229,
      "rize": 8230,
      "ĠJustice": 8231,
      "Ġfocusing": 8232,
      "opher": 8233,
      "Ġstreets": 8234,
      "Ġboundaries": 8235,
      "Ġsentences": 8236,
      "books": 8237,
      "iva": 8238,
      "Ġattach": 8239,
      "icular": 8240,
      "Ġfra": 8241,
      "Ġfing": 8242,
      "Ġflexible": 8243,
      "ĠHawai": 8244,
      "ĠIT": 8245,
      "iop": 8246,
      "Ġcomputing": 8247,
      "Ġinteractive": 8248,
      "ĠAlexander": 8249,
      "Ġremarkable": 8250,
      "Ġspray": 8251,
      "Ġ39": 8252,
      "ĠSection": 8253,
      "Ġfaces": 8254,
      "Ġupdated": 8255,
      "ĠSolar": 8256,
      "Ġmovie": 8257,
      "Ġnutrient": 8258,
      "amps": 8259,
      "Ġscr": 8260,
      "ĠAT": 8261,
      "Ġperforming": 8262,
      "Ġ95": 8263,
      "ĠTO": 8264,
      "ema": 8265,
      "Ġgent": 8266,
      "Ġincident": 8267,
      "zer": 8268,
      "ĠView": 8269,
      "Ġlabour": 8270,
      "Ġexped": 8271,
      "Ġcardiovascular": 8272,
      "Ġcompost": 8273,
      "Ġscope": 8274,
      "Ġtemporary": 8275,
      "ĠHarvard": 8276,
      "eting": 8277,
      "Ġevident": 8278,
      "Ġequality": 8279,
      "aints": 8280,
      "elve": 8281,
      "Ġrecycling": 8282,
      "Ġeru": 8283,
      "Ġtelling": 8284,
      "kind": 8285,
      "Ġtransmit": 8286,
      "Ġwatching": 8287,
      "ENT": 8288,
      "Ġcancers": 8289,
      "ĠCard": 8290,
      "ĠEPA": 8291,
      "berry": 8292,
      "amine": 8293,
      "ĠGar": 8294,
      "Ġtables": 8295,
      "Ġhouseholds": 8296,
      "Ġcolonies": 8297,
      "aren": 8298,
      "Ġasp": 8299,
      "And": 8300,
      "Ġdeeply": 8301,
      "Ġdefinitely": 8302,
      "Ġmetals": 8303,
      "Ġestablishment": 8304,
      "Ġcourts": 8305,
      "Ex": 8306,
      "64": 8307,
      "Ġ;": 8308,
      "Ġtap": 8309,
      "ĠAL": 8310,
      "ĠpH": 8311,
      "Ġlock": 8312,
      "bean": 8313,
      "Ġdirections": 8314,
      "Ġenormous": 8315,
      "Ġclock": 8316,
      "rical": 8317,
      "ugg": 8318,
      "Ġarguments": 8319,
      "ĠOk": 8320,
      "Ġdimens": 8321,
      "Ġminds": 8322,
      "ĠOften": 8323,
      "ĠSS": 8324,
      "Ġstrike": 8325,
      "ĠLim": 8326,
      "Ġkingdom": 8327,
      "Ġcapabilities": 8328,
      "ĠSunday": 8329,
      "Ġmanager": 8330,
      "Ġlogic": 8331,
      "Ġstyles": 8332,
      "ĠInvest": 8333,
      "asm": 8334,
      "Ġbehavioral": 8335,
      "BT": 8336,
      "soft": 8337,
      "Ġpromoting": 8338,
      "angle": 8339,
      "Ġhall": 8340,
      "Ġspoken": 8341,
      "Ġaddiction": 8342,
      "Ġcann": 8343,
      "ivestock": 8344,
      "Ġpilot": 8345,
      "ĠPoint": 8346,
      "Ġfeels": 8347,
      "Ġconclus": 8348,
      "ĠIraq": 8349,
      "ĠMath": 8350,
      "Ġlowest": 8351,
      "Ġwebsites": 8352,
      "ĠCub": 8353,
      "Ġclothes": 8354,
      "Ġjur": 8355,
      "Ġheaven": 8356,
      "hire": 8357,
      "Ġuniversities": 8358,
      "ĠDrug": 8359,
      "Ġgast": 8360,
      "uum": 8361,
      "ĠMach": 8362,
      "ĠNeed": 8363,
      "Ġgrounds": 8364,
      "On": 8365,
      "Ġlists": 8366,
      "htt": 8367,
      "Ġ34": 8368,
      "asy": 8369,
      "iger": 8370,
      "Ġassumed": 8371,
      "una": 8372,
      "erman": 8373,
      "lete": 8374,
      "Ġfisher": 8375,
      "Ġ1920": 8376,
      "Ġtip": 8377,
      "Ġfires": 8378,
      "Ġcontainer": 8379,
      "Ġremoving": 8380,
      "Ġcelebrated": 8381,
      "Ġ37": 8382,
      "Ġdominant": 8383,
      "Ġperceived": 8384,
      "ĠSaint": 8385,
      "Ġguess": 8386,
      "omer": 8387,
      "ĠHelp": 8388,
      "agan": 8389,
      "urning": 8390,
      "ĠMur": 8391,
      "Ġpriority": 8392,
      "amination": 8393,
      "Ġsafely": 8394,
      "ĠNavy": 8395,
      "Ġsaved": 8396,
      "%,": 8397,
      "ĠWithin": 8398,
      "Ġdistricts": 8399,
      "Ġcommittee": 8400,
      "Ġinvestigate": 8401,
      "Ġclassified": 8402,
      "ĠIce": 8403,
      "Ġham": 8404,
      "Ġappeal": 8405,
      "uits": 8406,
      "89": 8407,
      "Ġwider": 8408,
      "Ġtens": 8409,
      "Ġdies": 8410,
      "Ġlighting": 8411,
      "Ġdetermining": 8412,
      "Ġdim": 8413,
      "Ġpreferred": 8414,
      "ĠWriting": 8415,
      "Ġclassical": 8416,
      "Ġduration": 8417,
      "Ġpainful": 8418,
      "DS": 8419,
      "Ġcontinuing": 8420,
      "Ġthesis": 8421,
      "ĠFrancisco": 8422,
      "Ġtrick": 8423,
      "Ġdevast": 8424,
      "lights": 8425,
      "Ġinterior": 8426,
      "ĠStan": 8427,
      "ipe": 8428,
      "Ġ2021": 8429,
      "iner": 8430,
      "Ġnewspaper": 8431,
      "Ġlosing": 8432,
      "ĠPass": 8433,
      "utation": 8434,
      "NS": 8435,
      "ket": 8436,
      "],": 8437,
      "Ġpromise": 8438,
      "raham": 8439,
      "ĠPhilipp": 8440,
      "Ġreign": 8441,
      "ĠGulf": 8442,
      "Ġecological": 8443,
      "Ġcontributions": 8444,
      "Ġparad": 8445,
      "fulness": 8446,
      "Ġpassion": 8447,
      "Ġgeomet": 8448,
      "ailable": 8449,
      "Ġdesert": 8450,
      "Sh": 8451,
      "Ġdairy": 8452,
      "ĠMax": 8453,
      "esh": 8454,
      "ĠFred": 8455,
      "ĠTestament": 8456,
      "Ġinterface": 8457,
      "Ġentering": 8458,
      "Ġviolent": 8459,
      "Ġtempor": 8460,
      "Ġengines": 8461,
      "ĠFarm": 8462,
      "ĠGener": 8463,
      "Ġdifferently": 8464,
      "ami": 8465,
      "ĠWildlife": 8466,
      "ptic": 8467,
      "Ġsodium": 8468,
      "Ġresil": 8469,
      "Ġresc": 8470,
      "Ġstood": 8471,
      "Ġparameters": 8472,
      "Ġfatigue": 8473,
      "Ġentit": 8474,
      "Ġbeat": 8475,
      "Ġintegration": 8476,
      "oul": 8477,
      "Ġdoi": 8478,
      "iations": 8479,
      "Ġchair": 8480,
      "Ġoccas": 8481,
      "ĠDO": 8482,
      "anted": 8483,
      "Ġrequirement": 8484,
      "ĠCE": 8485,
      "ashes": 8486,
      "rob": 8487,
      "ĠDC": 8488,
      "Ġwearing": 8489,
      "Ġwouldn": 8490,
      "mann": 8491,
      "Ġconvey": 8492,
      "Ġacting": 8493,
      "Ġhormones": 8494,
      "ĠAnalysis": 8495,
      "ĠMuslims": 8496,
      "ĠAR": 8497,
      "ĠAC": 8498,
      "Ġfur": 8499,
      "html": 8500,
      "ipher": 8501,
      "Ġprey": 8502,
      "Ġclients": 8503,
      "Ġraising": 8504,
      "Ġconverted": 8505,
      "ML": 8506,
      "Ġreverse": 8507,
      "lu": 8508,
      "Ġvegetation": 8509,
      "ĠModel": 8510,
      "ĠCrit": 8511,
      "ĠIndepend": 8512,
      "unct": 8513,
      "Ġinfants": 8514,
      "ĠCapt": 8515,
      "Ġmyself": 8516,
      "gon": 8517,
      "They": 8518,
      "Ġsensor": 8519,
      "',": 8520,
      "gr": 8521,
      "Ġapplying": 8522,
      "ĠRight": 8523,
      "Ġbegun": 8524,
      "istant": 8525,
      "Ġexisted": 8526,
      "Ġaccompanied": 8527,
      "Ġsculpt": 8528,
      ".).": 8529,
      "tw": 8530,
      "Ġaudio": 8531,
      "ogy": 8532,
      "Ġweigh": 8533,
      "Ġshed": 8534,
      "olk": 8535,
      "mented": 8536,
      "Ġdegrad": 8537,
      "feed": 8538,
      "Ġempty": 8539,
      "enced": 8540,
      "ailed": 8541,
      "ĠCirc": 8542,
      "Ġpersu": 8543,
      "Ġgravity": 8544,
      "Ġtack": 8545,
      "Ġsad": 8546,
      "Ġbiodiversity": 8547,
      "ifice": 8548,
      "ĠKids": 8549,
      "Ġshaped": 8550,
      "eping": 8551,
      "jo": 8552,
      "idal": 8553,
      "Ġprovince": 8554,
      "ĠIslands": 8555,
      "Ġcough": 8556,
      "Ġbare": 8557,
      "Ġlifetime": 8558,
      "Ġdiffer": 8559,
      "Ġtargeted": 8560,
      "ĠHum": 8561,
      "ĠBetween": 8562,
      "icity": 8563,
      "Ġchose": 8564,
      "Ġemerged": 8565,
      "ĠDaniel": 8566,
      "Ġranging": 8567,
      "Gen": 8568,
      "ĠPut": 8569,
      "Ġspots": 8570,
      "lymp": 8571,
      "borne": 8572,
      "ĠPortug": 8573,
      "Ġpill": 8574,
      "ĠVe": 8575,
      "Ġhat": 8576,
      "Ġcraft": 8577,
      "olt": 8578,
      "Ġadapted": 8579,
      "akespe": 8580,
      "ĠSymptoms": 8581,
      "Ġversus": 8582,
      "Ġgods": 8583,
      "Go": 8584,
      "orig": 8585,
      "Ġwelfare": 8586,
      "Ġthread": 8587,
      "Ġequation": 8588,
      "Ġecosystems": 8589,
      "ĠFrid": 8590,
      "Ġcow": 8591,
      "Ġextension": 8592,
      "ĠHa": 8593,
      "Ġmedicines": 8594,
      "ĠMond": 8595,
      "Ġjoints": 8596,
      "Ġlibr": 8597,
      "Ġvirtually": 8598,
      "ackson": 8599,
      "Ġdense": 8600,
      "Ġtraits": 8601,
      "ĠIss": 8602,
      "Ġloose": 8603,
      "Ġrh": 8604,
      "bell": 8605,
      "ranean": 8606,
      "Ġcouncil": 8607,
      "ĠEconomic": 8608,
      "ĠLos": 8609,
      "ĠRam": 8610,
      "Ġcul": 8611,
      "Ġtone": 8612,
      "Ġexplicit": 8613,
      "ĠDigital": 8614,
      "Ġseriously": 8615,
      "thod": 8616,
      "Ġorb": 8617,
      "ĠBang": 8618,
      "Ġapparently": 8619,
      "Ġexpertise": 8620,
      "Ġaccord": 8621,
      "Ġwithdraw": 8622,
      "Ġsustainability": 8623,
      "mentia": 8624,
      "MP": 8625,
      "ĠSimilarly": 8626,
      "Ġmarg": 8627,
      "thew": 8628,
      "akespeare": 8629,
      "Ġactively": 8630,
      "Ġtrem": 8631,
      "Ġsaving": 8632,
      "Ġfet": 8633,
      "wan": 8634,
      "Ġengagement": 8635,
      "Ġgrades": 8636,
      "ĠAgriculture": 8637,
      "ĠPage": 8638,
      "ĠPain": 8639,
      "ĠHence": 8640,
      "ĠMajor": 8641,
      "oons": 8642,
      "usive": 8643,
      "Ġrealized": 8644,
      "Ġdrinks": 8645,
      "Ġarmed": 8646,
      "Ġattitudes": 8647,
      "Ġanticip": 8648,
      "Ġmature": 8649,
      "foot": 8650,
      "Ġpurchased": 8651,
      "ati": 8652,
      "ĠGiven": 8653,
      "Ġlinear": 8654,
      "Ġaging": 8655,
      "Ġwars": 8656,
      "Ġacknowled": 8657,
      "ouds": 8658,
      "Ġpersonnel": 8659,
      "Ġlimitations": 8660,
      "Ġhaven": 8661,
      "Ġcooperation": 8662,
      "âĢĺ": 8663,
      "Ġhypothesis": 8664,
      "ĠFil": 8665,
      "ĠUV": 8666,
      "ĠHindu": 8667,
      "Ġclub": 8668,
      "Ġtransmitted": 8669,
      "ĠLaboratory": 8670,
      "eor": 8671,
      "67": 8672,
      "Ġbalanced": 8673,
      "Ġvictory": 8674,
      "roud": 8675,
      "ĠMuch": 8676,
      "Ġintention": 8677,
      "imm": 8678,
      "Ġnotion": 8679,
      "Ġgathered": 8680,
      "Ġoutbreak": 8681,
      "ĠNob": 8682,
      "'d": 8683,
      "Ġdil": 8684,
      "Ġfriendly": 8685,
      "sor": 8686,
      "Ġobst": 8687,
      "Ġfacilitate": 8688,
      "nut": 8689,
      "Ġassembly": 8690,
      "operative": 8691,
      "Ġdiscussions": 8692,
      "uscript": 8693,
      "Ġgraduate": 8694,
      "lock": 8695,
      "ĠMid": 8696,
      "Ġcollective": 8697,
      "ĠSecretary": 8698,
      "ĠColon": 8699,
      "inois": 8700,
      "Ġdigestive": 8701,
      "erts": 8702,
      "oto": 8703,
      "onal": 8704,
      "Ġnoticed": 8705,
      "Ġmanual": 8706,
      "ĠInterest": 8707,
      "endar": 8708,
      "Ġimmigrants": 8709,
      "ĠCH": 8710,
      "gener": 8711,
      "Ġpupils": 8712,
      "Ġbarriers": 8713,
      "ocolate": 8714,
      "cyclopedia": 8715,
      "Ġgenome": 8716,
      "ĠCost": 8717,
      "ĠSystems": 8718,
      "ĠNO": 8719,
      "Ġsulf": 8720,
      "Ġopinions": 8721,
      "Ġdivine": 8722,
      "Ġnutritional": 8723,
      "Ġfo": 8724,
      "Ġoccupied": 8725,
      "Ġmunicip": 8726,
      "ĠChief": 8727,
      "raine": 8728,
      "ĠPlace": 8729,
      "ĠMoses": 8730,
      "Ġfrust": 8731,
      "Ġcomplexity": 8732,
      "Ġembry": 8733,
      "Ġrecre": 8734,
      "ologically": 8735,
      "Ġsongs": 8736,
      "Ġcheap": 8737,
      "Ġgum": 8738,
      "ĠBal": 8739,
      "'.": 8740,
      "Ġoxid": 8741,
      "Ġliterally": 8742,
      "Ġholiday": 8743,
      "Ġclassic": 8744,
      "ĠDiet": 8745,
      "eath": 8746,
      "Ġchoosing": 8747,
      "ĠHistorical": 8748,
      "Ġsymbols": 8749,
      "EF": 8750,
      "ila": 8751,
      "Ġorigins": 8752,
      "Ġcorresponding": 8753,
      "Ġ1940": 8754,
      "ĠGreece": 8755,
      "Ġsoph": 8756,
      "Ġshore": 8757,
      "ĠTown": 8758,
      "uan": 8759,
      "Ġaggressive": 8760,
      "Ġhygien": 8761,
      "Ġjoy": 8762,
      "bel": 8763,
      "Ġdating": 8764,
      "Ġrestaur": 8765,
      "itting": 8766,
      "Ġplanted": 8767,
      "Ġhospitals": 8768,
      "rix": 8769,
      "ĠBa": 8770,
      "elescope": 8771,
      "Ġreferences": 8772,
      "ĠShould": 8773,
      "Ġcolony": 8774,
      "Ġtact": 8775,
      "Ġsacred": 8776,
      "Ġreplacement": 8777,
      "Ġprevalence": 8778,
      "Ġspinal": 8779,
      "ĠAndrew": 8780,
      "zo": 8781,
      "Ġpione": 8782,
      "edu": 8783,
      "Ġinvolvement": 8784,
      "Ġprobability": 8785,
      "Ġsessions": 8786,
      "Ġcirculation": 8787,
      "Ġsees": 8788,
      "Ġuncle": 8789,
      "Ġreadily": 8790,
      "Ġspoke": 8791,
      "ĠPhysical": 8792,
      "Ġdisadvant": 8793,
      "ĠGall": 8794,
      "Ġpeer": 8795,
      "ĠProcess": 8796,
      "Ġmeaningful": 8797,
      "Ġhandling": 8798,
      "Ġattribut": 8799,
      "Ġcouldn": 8800,
      "Ġrestore": 8801,
      "fast": 8802,
      "ĠNorm": 8803,
      "Ġbeans": 8804,
      "Ġears": 8805,
      "def": 8806,
      "Ġphotographs": 8807,
      "Ġbreaking": 8808,
      "Ġunlikely": 8809,
      "Ġjuice": 8810,
      "ĠConference": 8811,
      "Ġcrown": 8812,
      "Ġpaying": 8813,
      "Ġreaches": 8814,
      "Ġpollut": 8815,
      "Ġcelebrate": 8816,
      "98": 8817,
      "Ġdevelops": 8818,
      "Ġvegetable": 8819,
      "Ġannually": 8820,
      "asma": 8821,
      "Ġpets": 8822,
      "izers": 8823,
      "Ġsavings": 8824,
      "Ġdropped": 8825,
      "Ġqualities": 8826,
      "neum": 8827,
      "Ġmembrane": 8828,
      "oves": 8829,
      "ĠOlymp": 8830,
      "Ġbleeding": 8831,
      "disc": 8832,
      "Ġalarm": 8833,
      "Ġscenario": 8834,
      "Ġdict": 8835,
      "obile": 8836,
      "ĠPu": 8837,
      "Ġviral": 8838,
      "Ġfunded": 8839,
      "CP": 8840,
      "ceans": 8841,
      "Ġworkshe": 8842,
      "ĠSenate": 8843,
      "made": 8844,
      "ĠBlood": 8845,
      "Ġassociate": 8846,
      "Ġresistant": 8847,
      "ĠOffic": 8848,
      "Ġsuit": 8849,
      "Ġrepresentative": 8850,
      "Ġcub": 8851,
      "Ġwat": 8852,
      "ĠCode": 8853,
      "ensed": 8854,
      "mia": 8855,
      "Ġsale": 8856,
      "08": 8857,
      "ĠAmazon": 8858,
      "aka": 8859,
      "Ġspecialized": 8860,
      "mentation": 8861,
      "Ġash": 8862,
      "esium": 8863,
      "Ġtill": 8864,
      "Ġintegr": 8865,
      "Ġabsorb": 8866,
      "Ġbasically": 8867,
      "ĠÐ": 8868,
      "Ġhabitats": 8869,
      "Ġprofile": 8870,
      "Ġtension": 8871,
      "Ġanger": 8872,
      "63": 8873,
      "Ġtends": 8874,
      "Ġhappiness": 8875,
      "friend": 8876,
      "ĠVan": 8877,
      "Ġcontrolling": 8878,
      "Ġsuicide": 8879,
      "ĠExamples": 8880,
      "Ġbuff": 8881,
      "Ġstrategic": 8882,
      "TH": 8883,
      "flamm": 8884,
      "icts": 8885,
      "Ġeverywhere": 8886,
      "Ġatoms": 8887,
      "ĠVietnam": 8888,
      "Ġworkplace": 8889,
      "adelph": 8890,
      "ĠEmer": 8891,
      "ĠArts": 8892,
      "ĠBureau": 8893,
      "claim": 8894,
      "issipp": 8895,
      "ilst": 8896,
      "Ġinfluences": 8897,
      "unc": 8898,
      "ĠBehav": 8899,
      "ĠLevel": 8900,
      "ĠAbraham": 8901,
      "Ġshorter": 8902,
      "Ġvaried": 8903,
      "Ġreveals": 8904,
      "ĠHard": 8905,
      "Ġtransc": 8906,
      "Ġenthus": 8907,
      "encing": 8908,
      "ĠCreek": 8909,
      "Ġdipl": 8910,
      "But": 8911,
      "Ġthemes": 8912,
      "Ġspan": 8913,
      "Ġprayer": 8914,
      "Ġgif": 8915,
      "Ġpowder": 8916,
      "ĠMusic": 8917,
      "Ġorange": 8918,
      "Ġpractition": 8919,
      "world": 8920,
      "aware": 8921,
      "Ġdiarr": 8922,
      "Ġrefused": 8923,
      "zyme": 8924,
      "Ġscheme": 8925,
      "ĠWatch": 8926,
      "Ġreflected": 8927,
      "Ġstrange": 8928,
      "Ġsons": 8929,
      "ĠKent": 8930,
      "Cl": 8931,
      "Ġsolving": 8932,
      "Ġprime": 8933,
      "Ġbee": 8934,
      "09": 8935,
      "agen": 8936,
      "Ġprescribed": 8937,
      ")|": 8938,
      "Ġcurrency": 8939,
      "ĠCopyright": 8940,
      "ĠTrust": 8941,
      "rh": 8942,
      "unning": 8943,
      "ĠRail": 8944,
      "Ġchurches": 8945,
      "Ġgardens": 8946,
      "Ġillnesses": 8947,
      "Ġgift": 8948,
      "Ġprofound": 8949,
      "Ġclay": 8950,
      "assium": 8951,
      "ĠSupport": 8952,
      "Ġbutton": 8953,
      "!âĢĿ": 8954,
      "Ġproductive": 8955,
      "Ġrestoration": 8956,
      "Ġdiscipline": 8957,
      "ĠIllinois": 8958,
      "ĠLin": 8959,
      "ĠLew": 8960,
      "Ġprivile": 8961,
      "CH": 8962,
      "medi": 8963,
      "Ġaddresses": 8964,
      "Ġprecip": 8965,
      "ĠProble": 8966,
      "ĠStandard": 8967,
      "ĠTemple": 8968,
      "ĠFriday": 8969,
      "58": 8970,
      "ĠRather": 8971,
      "ĠThird": 8972,
      "box": 8973,
      "Ġsheep": 8974,
      "ĠConvention": 8975,
      "uity": 8976,
      "ĠCall": 8977,
      "ĠMexican": 8978,
      "olves": 8979,
      "mod": 8980,
      "ĠObama": 8981,
      "Ġcompetitive": 8982,
      "Ġmouse": 8983,
      "earch": 8984,
      "Ġestate": 8985,
      "words": 8986,
      "swe": 8987,
      "Ġ42": 8988,
      "MA": 8989,
      "icking": 8990,
      "ĠSqu": 8991,
      "Ġchromos": 8992,
      "Ġ?": 8993,
      "chain": 8994,
      "Ġcreativity": 8995,
      "imp": 8996,
      "Ġ1989": 8997,
      "ĠJackson": 8998,
      "CR": 8999,
      "ĠAff": 9000,
      "Ġvaries": 9001,
      "ghan": 9002,
      "Ġincent": 9003,
      "reprene": 9004,
      "Ġgly": 9005,
      "59": 9006,
      "ĠGre": 9007,
      "ĠMinistry": 9008,
      "Ġglac": 9009,
      "vation": 9010,
      "Ġaccomplish": 9011,
      "Ġhal": 9012,
      "Ġpace": 9013,
      "ĠMess": 9014,
      "Ġho": 9015,
      "Ġtrace": 9016,
      "adelphia": 9017,
      "ĠIndones": 9018,
      "Ġdeploy": 9019,
      "Ġrecording": 9020,
      "Ġsciences": 9021,
      "Ġlivestock": 9022,
      "section": 9023,
      "ĠJacob": 9024,
      "Ġcoat": 9025,
      "Ġglobe": 9026,
      "Ġburden": 9027,
      "Ġsoils": 9028,
      "Ġpenet": 9029,
      "Ġrepresenting": 9030,
      "Ġpreparing": 9031,
      "Ġdraft": 9032,
      "acent": 9033,
      "03": 9034,
      "Ġownership": 9035,
      "Ġdevelopments": 9036,
      "Ġforecast": 9037,
      "Ġteens": 9038,
      "ĠFig": 9039,
      "Ġposts": 9040,
      "ico": 9041,
      "Ġinsights": 9042,
      "Ġarise": 9043,
      ")||": 9044,
      "ĠMedia": 9045,
      "requ": 9046,
      "Ġthroat": 9047,
      "Ġconstra": 9048,
      "Ġbreaks": 9049,
      "Ġpaintings": 9050,
      "Ġtongue": 9051,
      "zymes": 9052,
      "Ġpermit": 9053,
      "Ġadopt": 9054,
      "ĠDam": 9055,
      "OD": 9056,
      "Ġherself": 9057,
      "ospel": 9058,
      "aning": 9059,
      "ĠMove": 9060,
      "bered": 9061,
      "agnetic": 9062,
      "Ġultimate": 9063,
      "Ġindirect": 9064,
      "Ġsuddenly": 9065,
      "icating": 9066,
      "ĠOcc": 9067,
      "ĠAst": 9068,
      "urd": 9069,
      "issance": 9070,
      "Ġaccurately": 9071,
      "Ġmotivation": 9072,
      "Ġoils": 9073,
      "mond": 9074,
      "Ġpredicted": 9075,
      "Ġminority": 9076,
      "Ġbuying": 9077,
      "ĠShort": 9078,
      "ĠSelf": 9079,
      "Ġanalyzed": 9080,
      "Ġwise": 9081,
      "through": 9082,
      "Ġjudgment": 9083,
      "Ġenjoyed": 9084,
      "ĠID": 9085,
      "sex": 9086,
      "ĠWikipedia": 9087,
      "Ġconvert": 9088,
      "Ġpel": 9089,
      "Ġrestrictions": 9090,
      "regon": 9091,
      "Ġwing": 9092,
      "Ã¤": 9093,
      "Ġrooms": 9094,
      "ĠEll": 9095,
      "outheast": 9096,
      "cin": 9097,
      "Ġcompass": 9098,
      "Ġ120": 9099,
      "Ġscat": 9100,
      "Ġpossibilities": 9101,
      "bury": 9102,
      "irable": 9103,
      "Ġspecialist": 9104,
      "Ġwash": 9105,
      "abb": 9106,
      "urable": 9107,
      "Sc": 9108,
      "Ġperfectly": 9109,
      "Ġinvention": 9110,
      "Ġtransferred": 9111,
      "Ġpreserved": 9112,
      "Ġbarrier": 9113,
      "ĠGh": 9114,
      "rait": 9115,
      "Ġassignment": 9116,
      "Ad": 9117,
      "urrent": 9118,
      "Ġexploring": 9119,
      "Ġlegit": 9120,
      "eries": 9121,
      "Ġsurgical": 9122,
      "issippi": 9123,
      "Ġsister": 9124,
      "ĠConst": 9125,
      "ĠCA": 9126,
      "Ġsug": 9127,
      "Â®": 9128,
      "Ġsurprise": 9129,
      "ĠMA": 9130,
      "Ġneglect": 9131,
      "Ġmeetings": 9132,
      "Ġadvances": 9133,
      "Ġcontents": 9134,
      "Ġregime": 9135,
      "ĠUnderstanding": 9136,
      "umer": 9137,
      "Ġsatisfact": 9138,
      "worth": 9139,
      "opl": 9140,
      "Ġminimal": 9141,
      "Ġpasses": 9142,
      "Ġquantities": 9143,
      "Ġshr": 9144,
      "ĠRest": 9145,
      "ois": 9146,
      "Ġmerch": 9147,
      "Ġstreams": 9148,
      "ĠWeek": 9149,
      "ĠCentury": 9150,
      "Ġdescend": 9151,
      "ĠBest": 9152,
      "Ġcig": 9153,
      "02": 9154,
      "Ġverb": 9155,
      "Ġevolutionary": 9156,
      "Ġvig": 9157,
      "Ġoptimal": 9158,
      "Ġpairs": 9159,
      "Ġspacecraft": 9160,
[...]
